0000
0000
0000
0000
0000
0D30
0000
0000
0000
0000
0000
0000
0000
0180
0304
0000
0000
001C
0000
0000
01E0
0000
0008
0000
000F
0000
0000
0000
0000
0000
0000
1FD7
014B
0000
0000
0000
0000
0000
1FD1
0000
0000
0000
0000
0000
0000
0258
1E91
0000
0000
0000
0000
0000
0000
1F3E
1FF4
0000
0000
0000
0000
1FDA
1FE6
0254
0000
0000
