0000
0000
0000
0000
0000
0000
0000
0000
0000
0000
0000
0000
0000
0000
0000
0000
0000
0000
011F
0000
0000
0000
0000
0000
0000
05BD
0000
3FC8
0000
0000
0000
0000
0000
0000
0000
0000
24AF
0000
3FB7
3F27
0000
0000
0000
3B6C
0000
0000
0000
0000
0000
001A
0000
020F
00CA
0000
0000
0000
0000
0000
3B4F
0000
0000
0000
3FE4
0000
