05A2
0000
0000
0000
0000
0000
0000
1E9C
0000
0425
0000
1FD4
0000
0600
1EEB
0000
0000
0026
0000
0000
0000
0000
0000
0000
0000
0000
06D0
0000
0000
0000
0000
0000
0000
00A6
02F3
0000
1DB0
0000
0000
0000
0000
0000
0000
0000
0000
0400
0000
0000
0000
0000
0000
0000
0000
0000
0000
0000
1784
0000
0000
0000
0000
0000
0000
0000
