0000
0000
0000
1DC3
0000
0000
0000
0077
0000
0000
0000
0000
0000
0000
0000
1C91
02CD
0000
0000
0000
0000
0000
0000
0000
0000
0000
0000
0000
002A
0000
1F07
0000
0000
1CB8
0000
0000
0000
0000
0000
0000
0000
1EF4
0000
0000
0000
1B51
0000
0000
0000
0000
0000
0000
0000
0000
0000
0000
1CE5
0000
0031
0007
0000
1DB8
0000
0000
1F41
0000
0000
0000
0000
0000
0000
0000
0000
1EEF
0000
0000
1B36
0000
0000
0000
0000
0000
0000
0000
0000
0000
1FF9
0000
0000
1C8F
0000
0000
0000
0000
1A07
0000
1F8A
1AFE
0000
0000
1EDC
0028
0000
0268
0000
0000
1C4B
0000
0000
0000
0000
0000
0000
0000
0013
0000
0000
1CBA
0000
0000
0000
0000
0000
0000
0000
0000
0000
1FF8
0000
0000
1E03
0000
0000
0000
0000
01DC
055D
0000
0000
0000
0000
1FA7
0000
0000
0000
0000
0263
0000
0000
0000
0000
0000
0000
1F88
0000
0004
1FEC
0000
1BD3
0000
1F1D
0000
0000
0000
0000
1FF4
0000
0000
0000
0000
0000
0000
1CD4
0000
0000
0000
0000
0000
0000
0000
0000
0000
0000
0000
0000
1ADB
0000
0000
0000
0000
0000
0000
034A
0000
0000
0000
0000
0000
0000
0000
0000
0000
0000
0000
0000
0000
02CA
1F36
0000
0000
1BD5
0000
0083
024D
1FEF
00D6
0000
0000
1D61
0000
0000
0000
1E2D
1FF0
0000
026C
1E19
0323
0000
0000
0000
0080
0000
026B
0000
0000
0000
01CA
0000
0000
0000
1FE4
0000
0000
0000
0000
0000
0040
0000
01C0
1CBC
0000
0000
018A
0000
0000
0000
0000
0000
0000
0000
0000
0000
0000
0000
0000
0000
0000
0000
0000
1EC8
1F15
0000
0000
1F08
0000
0000
0000
0000
040A
0000
0000
0000
1FB7
0000
0000
0000
1FAC
0000
0000
0000
0000
1A2C
13F1
0000
1DCC
1CFA
027C
0000
0000
0000
0000
0000
0000
0000
1FBC
0000
0000
0000
0000
0000
0000
0000
0000
0000
0000
0000
0000
0000
01C0
0000
1FD9
0000
0000
0000
0000
0000
0000
0000
0000
0000
0000
008C
0000
0000
0000
0000
0000
1B3C
0000
0000
0000
000B
020C
0000
0000
0000
0000
1FD8
0000
0000
1FAF
0000
0000
0000
0000
1C76
0000
0000
00AF
0000
0211
017A
0000
1FCE
0000
0000
0000
01BC
0000
0046
0000
0000
0000
003C
0000
0000
0000
0000
0000
0000
0163
0000
0000
0000
0000
0000
0000
0000
0000
0000
0000
00FF
0000
0000
0000
0000
1E5C
0000
002B
0000
0000
0000
0000
0000
0000
0000
0000
0000
0000
1F82
0000
0000
0000
000B
0000
1D53
0000
1F96
0000
0000
0000
0000
0000
0000
0000
0000
0000
0000
0000
018A
0000
0000
1FE6
0000
0060
0000
009D
0000
0000
0000
0000
0000
001A
0000
0000
0000
0000
0000
0017
0000
0000
0000
0000
0000
0000
0000
1DC6
0000
0000
0000
0000
000B
0000
0000
0000
0087
0000
1EE5
0000
0000
0000
0000
0000
0000
0000
001C
0000
1FCD
0000
0000
0000
0000
0000
0000
0000
0000
0000
0000
0000
0000
0000
0000
0000
0197
0000
0000
0000
0000
0000
1E49
0000
1FC5
0021
0000
0000
0000
0000
0000
1F65
0000
0000
1FD9
0000
0000
0000
0000
0000
1F57
0000
0000
0000
0000
0000
0000
0000
0000
0000
1EBB
0000
0099
0000
1F08
0000
0000
0000
0000
0000
0000
003B
0000
0000
1E6F
0000
0000
0000
0000
0000
007A
0000
1FF1
0000
00A4
0000
1E4D
1E37
0000
1FDC
0000
0000
0000
0000
0000
1D65
0000
0000
0000
0000
0000
0000
0000
0000
0000
0000
0000
0000
0000
0000
0000
1EC1
1E6B
1FB4
0000
1DDB
0000
0000
0000
0000
0000
0000
0000
0000
1F17
0000
0000
0000
0000
0000
0000
0000
0000
0000
0000
0000
0000
1D17
01BF
000A
1EDF
0000
0000
0000
0000
0000
0000
0000
0000
1FC3
0000
1BB7
0000
0000
0000
0000
0036
1FB9
0013
0072
01A3
1FB1
0044
0000
0000
0000
0000
0000
0000
00F0
0013
0000
