0000
0000
0000
0000
0000
721D
0000
0000
0000
0000
7E66
0000
7889
0000
0000
0000
0000
00E3
7FB8
0000
0000
0000
0000
0000
0000
0000
0000
0000
0000
0000
0000
0000
0000
0000
0000
0000
0000
0000
0000
05A2
0000
0245
0000
0000
0000
0000
0000
0018
7FD3
7FBF
0000
0000
0000
0000
7FC8
0000
0000
000B
0000
7FFF
0001
0000
0000
0000
7FD1
7FDE
0015
0000
0000
0010
0000
7FED
0000
0029
7FC1
7FD8
0000
0000
0000
7FD0
0000
0015
0000
0000
0000
0000
0003
0000
0000
0000
0000
0369
0000
0000
0000
0000
0000
0000
0000
0000
0000
0000
0000
0016
0000
0000
0003
0000
0000
0000
0000
0000
0000
7FF3
0000
0000
0000
0000
0000
0000
0000
01D6
0463
0857
0000
0000
0000
0604
0000
0000
0000
007B
0000
0000
0000
0000
096B
0000
0000
0000
0000
0000
087B
1CDF
0000
0000
7FF0
7FD7
0000
0000
7FE9
0000
0000
0000
7DA0
7F70
7B30
7DFD
0000
0000
0000
0000
0000
0000
7B0E
0000
096C
0000
0000
0000
01B7
0000
0000
0000
0000
0000
0000
0000
0720
0000
0000
0000
0000
006A
0000
1DBB
31FC
0000
0000
0000
0000
0000
0000
0000
0000
0000
7EDD
7D4D
00C4
0000
0000
0000
0000
0000
0000
0000
0000
7D2F
7A21
05A2
0000
0000
0000
0000
0000
7FB0
0000
0000
0000
7F82
0000
0179
042A
0000
0000
0000
0006
0000
0000
04A7
0000
0000
01CC
0000
0000
0000
0025
7FF8
0000
7F92
0000
002C
0000
0000
0000
0000
0000
7F91
0000
0000
7EE6
0000
0000
0000
0000
0000
0000
0D30
0000
0000
0000
0000
0000
0000
0000
0000
0000
0000
0029
7FD3
0000
0000
0CFA
23E6
0000
0C18
0000
1582
0000
7F6F
0000
00FC
0000
0000
7EBC
030B
0000
0000
0000
0000
7FE9
7E84
7EAB
78DB
0000
0000
0000
0000
0000
02D5
0000
0000
0000
017E
0000
0000
0000
04E9
0000
0536
0000
0000
0000
005F
0000
0000
0000
0000
0000
0000
0000
015C
0000
0000
0000
7D4A
0000
0000
0000
0000
0000
0000
0120
0000
0000
0000
799A
7F2D
7F98
7F72
7E9C
0000
7A33
0000
0000
0000
0000
0000
0000
7523
013D
0000
0000
0000
0000
00C6
0000
0000
0000
0000
0000
0000
0000
0292
7FB0
0000
0000
7F75
0000
0000
0000
0000
0000
0000
7EB4
0000
7F99
0000
0000
7DB5
6B41
0000
0000
0000
7FF5
0000
0000
0000
0000
0000
0000
0000
0000
0000
0000
0000
0000
0000
0000
0000
0000
0000
0000
0000
0000
0842
165B
0000
0000
0000
009C
0000
0354
0000
0000
0000
79AC
0000
0000
0000
0000
0000
0000
0000
0000
0000
0425
0000
0000
0000
0019
0000
0000
0000
0000
0000
0000
0000
0000
0000
0000
0000
0000
0000
0027
000B
7FE5
0000
0000
0000
0000
0000
0000
0011
7FE5
0000
0000
0000
0027
7FD0
0000
0000
7FF1
0000
001D
0037
0000
0000
0000
0000
0000
0000
0000
0000
7FDF
0000
0000
0000
7FC0
000C
0000
0007
0000
0000
0000
0000
0035
0002
0000
0000
0000
0000
0000
0000
0000
7FE6
0015
0000
0026
0000
0000
0000
0000
0000
0013
0000
0000
0000
7FF7
000B
0000
0000
7FD4
0000
0000
0000
0000
0000
7F25
0000
0000
0000
7270
0000
049F
0000
0000
0000
0000
0000
080C
0000
0A82
0000
0000
0000
0000
000C
0000
0003
0000
0000
0000
0000
0000
762E
0000
0000
0000
0000
0000
0000
07E3
0000
0000
0000
0000
0000
0000
0001
0000
01A2
0000
0000
00D8
0000
0000
0000
0000
0000
7EBA
0000
0000
0000
00CE
0000
0000
0000
0000
00E7
0000
7FF4
0000
0000
011C
0000
0000
0000
7F67
0086
0000
0000
7FCA
0000
7AFF
0000
7E84
0000
0600
0000
0275
0180
0000
0000
0000
0000
0000
79EC
0000
0000
0000
0000
0000
7FCD
0000
0000
0000
0000
0000
0000
0000
0000
0000
0000
0000
0000
0100
02D3
0000
0000
793B
0000
0000
0000
0000
0000
02D7
0000
0000
0000
0000
7EEB
0045
0000
0304
0000
0000
0000
0000
0111
0000
0000
0000
0000
0000
0000
0000
7F1C
7971
0000
0000
0000
7FA7
0000
0000
0000
0000
0000
0000
0003
7E55
0000
0000
0000
039B
7102
0000
0000
0000
0000
0000
0000
0000
0000
0000
0000
0000
0000
0000
0000
010A
0000
7FE8
78F1
0000
0000
0000
0000
0000
7D9D
0000
0000
0000
0000
0000
0000
0000
0000
0000
0073
016B
0000
0000
7FEC
0000
0000
0000
0000
0000
0000
0000
0000
0077
0000
0000
0000
0000
0000
7AAE
0359
0000
0000
0031
0000
0000
0000
0000
7FFC
0000
001D
0000
0000
0000
001A
0000
0000
0000
0000
7FD2
0000
0000
0046
0000
0000
0000
0000
000F
0000
0000
0000
7FDE
0017
002A
0000
0000
0000
0000
0000
0000
0000
0026
0000
0032
001C
0000
0000
0000
011F
0000
0000
0000
0000
0000
0000
7EDA
0000
0000
0000
0000
0000
0000
0000
0000
0066
0000
7FDC
0000
0000
0000
0000
0000
7F9C
0000
0000
0000
0000
0000
0000
7BDA
082E
06AC
0000
7F8E
0000
0000
7F1A
0000
0000
0000
0000
0000
0000
0000
0000
0000
0000
0000
0000
0000
0000
0000
0000
0000
0000
0000
7FFC
0000
0034
0000
0000
0000
0000
0000
0000
0006
0000
0000
0000
0000
0000
0000
0000
0000
7FF5
0000
0000
0000
0000
0000
0000
0000
0039
01CE
0000
0000
0000
7F94
746F
0000
0000
001E
0000
030C
0000
0000
0000
0000
0000
0000
0000
0000
0000
0000
000D
0000
0000
0000
0000
0000
7EB7
0000
0000
0000
0000
7D2F
0000
0000
0000
0000
0000
0000
01D6
01E0
7EDD
7DF9
0000
0000
0000
0000
7E1E
0000
0000
00BB
0000
7E5A
0000
0000
0000
02E8
0000
0000
7FCF
0000
01A6
0000
0000
0000
0000
0000
0000
0000
0000
0000
0000
00BD
0000
0000
0000
0000
027F
0000
0000
0000
7FC9
0000
0000
0000
001C
0000
0000
7FB1
0000
7FF0
0000
0000
0000
0000
0000
0000
0000
0000
7FC6
0000
7FB1
0000
003F
7FEC
0000
0000
0000
7FE5
0000
0000
0000
0000
0061
0037
0000
0000
7FCC
0000
0000
7F99
7FE1
0001
0000
0000
7FF5
0008
0000
0000
0000
0000
0000
7D19
0000
019F
0000
0000
0000
0000
0000
0000
0000
0000
0000
0000
002D
0000
0000
0000
0000
0000
0000
0000
0000
0000
0000
7195
0000
0000
0000
0078
0756
0000
0000
0000
0000
0000
0000
0000
0000
0000
0000
0000
0000
0017
0000
7FE2
0012
0000
0000
0000
0000
0000
0000
0000
0000
7FB5
0000
7FBE
0000
001C
7FFB
0000
0000
0000
0000
0000
0000
0000
0000
0000
0000
0000
002A
0021
0000
0000
0000
0000
0000
0000
0000
000F
0000
0000
7FEC
05BD
7FEB
0000
0000
017A
7AE1
0000
0000
0000
0000
0000
0000
0000
0000
0000
0000
0000
0000
0000
0000
7FF0
0000
0000
0000
0000
0000
0000
0000
7FE1
0000
7FB3
0000
0000
0000
0633
0000
0000
0000
0000
0000
023D
0000
0000
0000
0000
0000
06AC
0000
0000
0000
0136
0000
0000
0000
04F1
0000
0000
0000
0000
7FD9
0000
7FED
0000
0000
0000
0000
0000
0000
0000
0000
0000
0000
0000
0000
0243
0000
0000
0000
7C9F
06D0
0000
7C47
0000
0000
7FF0
7FCD
7FC8
0000
0000
7FCA
0000
0000
0000
0000
0008
0000
0000
0000
0000
0000
0000
0000
0000
0000
0000
0000
0000
0000
0015
0000
0000
0000
0000
7FF3
0000
0000
0000
0000
0000
7FF5
0000
0000
0000
0000
0000
0000
7FE5
0000
0000
0000
0000
001D
0000
0000
0000
0000
0000
0000
0000
0000
0000
0002
0000
0000
0000
0000
0000
0000
0000
0000
0000
0000
0000
0000
7FD7
0000
0000
0000
0000
0000
0000
0008
0000
0000
0000
0000
0000
0000
0000
0000
0000
0000
0000
0000
0000
0000
0000
0000
7F8B
0000
00B6
05E8
0000
0000
2DC6
0000
0000
0000
0000
0000
7FDF
001B
0000
0000
0000
0000
0594
03E2
6E24
09AB
0000
0000
0000
0000
7E4D
0000
0000
0000
0000
0000
7B40
0000
0019
0000
0000
0000
0000
7B02
0000
0000
7B62
0000
7E0A
0000
0000
0000
0000
0000
0000
0000
0000
0000
0138
0000
0004
0000
0000
0000
7FE4
0509
0000
0000
7BAB
0000
0000
0000
0000
0000
0000
0000
0395
0000
0000
0000
0000
0000
0000
7FFA
0000
0000
0000
0000
0000
0000
0000
7FD4
0000
0000
0012
0000
0000
0000
7FF6
7FFB
0000
7FCE
0000
0000
0000
0000
0000
0000
0000
001F
0000
0016
7FDA
0000
0000
0000
0000
7FF7
0004
0035
0000
0000
0000
7FD7
7F6C
0000
0000
0000
0027
0000
7C35
0000
0000
7E42
0000
0000
01A5
7BE8
0000
0000
0000
0000
0000
0000
0000
0000
0000
0000
0000
0271
7FC6
0000
0000
0000
0000
0000
7D4D
0000
0121
0000
0000
0000
0000
0000
0000
0363
014B
0000
00C8
0000
0000
0000
0000
0000
0000
0000
0000
0000
0000
0000
7F31
0000
0000
0958
0000
0000
0000
7FBA
7FF1
0000
0000
7EF6
0114
0000
7726
0000
06C9
0000
0000
0000
0000
0000
0000
0000
0000
7CEA
00A6
0000
00FD
0000
0000
0000
7F17
0000
0000
0000
0000
0000
0000
7FF4
0000
0000
047F
0000
0000
0000
7D6E
0000
7FF3
7FC3
0000
0000
0000
0000
0000
0000
7DBC
0000
0000
0000
0000
01D4
0000
0000
7F98
0000
0000
7F99
0000
02F3
7ED4
0000
0000
0000
0000
0000
0000
0000
0000
0000
69C6
0000
7AF0
7DDB
0000
0000
075A
0000
0000
0000
7FAE
7EA6
6CA9
0000
7FF4
0000
00D9
7FE2
0078
0000
0000
0000
04A5
0000
0000
0000
0000
0000
0000
02AB
7A7E
0000
0000
0000
0000
0000
0000
7FE4
7FE3
64AF
0000
0000
0000
0000
0000
0033
0059
0000
0000
0000
76CB
0000
0000
0000
0000
790D
0000
75CF
0000
0000
6ABE
0000
0000
0000
0000
0000
0000
0033
0000
0000
0000
0000
0557
004C
0000
7DB0
0000
0000
0000
7C09
0000
0000
0000
0000
011F
0000
0000
0000
0007
7FDB
0019
0000
0000
7E28
0000
0000
0000
0000
0000
0000
0000
0000
7FD8
0000
020C
0000
7FDB
0000
0000
7FE1
0000
0000
0000
0000
0000
01F9
0000
0000
0000
0000
7DC3
0000
0000
0000
0000
7FB7
0000
0000
0000
0000
7FE3
0000
0014
0000
7FBC
0000
0000
0000
0000
000D
0000
0000
0000
0000
0000
0000
0000
0000
0000
0000
0000
0000
0000
0000
7FC1
0000
0000
0000
7FE0
0000
0000
0000
0000
0000
7FD1
0000
0000
0000
7F27
0000
00B7
0000
0000
7155
0000
0000
0000
0000
0000
0000
0000
0000
0000
7E9C
0000
0000
0000
0000
0000
03B5
0000
0000
0000
0000
7663
6D3A
0000
0000
0000
0000
0000
0000
000A
001B
0000
0000
0000
0000
0000
0000
0136
0000
0000
0000
0000
0000
0000
6C9E
0000
0000
0000
0000
7EBC
0000
07AF
03E8
00AD
0000
7FFC
0000
7FFF
0019
0000
0000
0000
0000
0000
0000
0000
0000
0000
0000
0212
03E9
0000
0000
0B6E
0000
0000
0000
0000
0000
0000
0000
0000
0000
0000
0000
7CBB
0000
0000
0000
7E4A
02E1
0000
0000
0000
0000
0000
0000
0000
00F0
0000
0000
0000
0000
0000
0000
0000
7FAE
0000
7FE7
032B
0000
0016
0000
0000
072C
0000
0000
0000
0000
0000
0000
0000
0000
0000
0000
0000
0000
0000
0001
0000
0000
0000
0000
0000
0000
04FD
0207
0934
0000
0000
0000
0000
0000
0005
0000
0103
02FD
0000
0000
0000
0000
0000
0000
0000
0000
0000
0000
05D7
0000
0000
0000
0000
0000
0000
7FEE
0127
0000
7B6C
0000
7DD8
0000
7C60
0000
7F52
0000
012D
0000
0000
0000
0000
0000
0000
0000
0000
0000
0000
0000
0000
0000
0000
0000
0000
0000
0000
0F85
0330
7E34
0000
0000
0000
0000
0000
1BE2
0000
0000
03A9
0000
000D
0000
7F81
0000
0000
0000
0000
0000
0000
0000
0000
0000
0000
7C4D
2EB8
0000
0000
0000
0000
0921
0000
0008
0000
0075
0000
0000
0000
0000
0799
0000
0000
0000
7FD7
0000
0000
0000
0000
00CC
0000
0000
0000
7A70
0000
0000
0000
0000
0000
0000
0000
0000
0000
02B0
0000
7E8F
0000
0000
0000
0000
0000
0000
0496
0000
0000
0000
7FBA
0000
0000
7E51
7F39
7D9D
0000
0000
0000
0000
001B
0000
00CB
0000
0000
0000
0000
0000
0400
01DD
0000
0258
7FFF
0000
7F8D
0000
0000
0000
0000
7DA6
0000
0000
0000
0000
0000
0000
0745
0000
7D96
0000
7637
0000
7FD0
0000
0000
0000
7F9E
0000
0000
0000
0000
051A
0000
7BBC
0000
0000
0000
05BD
0000
0000
0000
0000
0000
7DB8
7E91
0000
0000
0000
0000
0000
0000
001B
0000
0000
0000
0000
0000
0000
0028
0000
0000
0000
0000
7FD6
7FDB
0000
7FF6
0000
0000
000B
0000
0000
7FD3
0000
0000
0000
0000
0000
0000
7FBA
7FBA
0000
0000
0000
0000
0000
0000
0000
0000
0000
0000
0000
0000
0000
7174
0000
7708
0000
0000
0000
0000
0000
0000
6DF5
0000
0000
0000
0000
0000
0000
0000
0000
0000
0000
7FE5
0000
0000
0000
0000
0000
0000
0000
0000
0000
0000
01AF
0000
0000
0000
0432
0000
7FEC
0000
0000
001A
7FEA
0000
0019
0000
0000
7FC8
7FF4
0000
0034
0000
0000
0000
0000
000C
0000
0000
0000
0000
7FC6
7FFF
0018
0000
0000
0000
7FB1
0000
0000
0000
7FFA
0000
0000
7FC2
7FDD
0000
0000
0000
0000
0000
0000
0000
0000
0000
0000
0000
7FB2
0000
0000
001A
0000
0000
0000
0000
0005
0000
0000
0000
0000
0004
7FEF
0000
0000
0000
7FF3
7FF5
0000
0000
7FB3
0000
0000
0000
0000
7FFE
0000
0000
0000
0000
0000
0000
0000
0000
7FF3
0000
0060
0000
0000
020F
0000
0000
0000
0000
0000
0000
0000
0000
0000
7CE9
0000
0000
0000
0000
7D1F
0000
0000
0000
0000
0000
0000
0000
010C
0000
0000
0000
0000
0000
0000
00BC
0000
0000
0000
0000
0000
0000
0000
0000
0000
7CEE
0000
0000
00CA
00E7
0000
006E
0000
0000
0000
7FA0
0000
0000
0000
0000
0000
0000
0000
0000
7B62
0000
0000
0000
0000
0148
0000
0000
0000
0000
0000
0000
0000
0000
0000
0000
039A
01B9
0000
0000
0000
0000
0040
0000
0000
0000
0000
0000
7F4F
0000
02B3
0315
7DF2
0000
0000
0296
0000
0000
02DA
7EFF
0000
0000
0000
0000
7C80
7FDD
0000
0000
0000
7D3D
0000
0000
0000
0000
0000
0000
7F96
0000
0000
0000
0000
0000
0000
0000
0036
042F
7F3E
0000
7FC2
7FCF
0000
0000
0000
0000
0000
7FF1
0000
0000
0000
0000
0000
0000
0000
0000
0000
0000
0000
0000
0000
7FFD
7FFE
0000
0000
0018
0000
0000
003A
0000
0000
0000
7FC9
0007
0000
0000
0000
0000
0000
0000
0000
7FF4
0000
0000
0000
0000
0000
0000
0000
0000
0000
0000
0000
0000
0000
0000
0000
0000
0000
0000
0000
0000
0000
0000
7FD1
0000
0000
7FCC
0000
0000
0000
0000
0000
7FFF
0000
0000
0000
0000
0015
0006
7FED
0000
0000
7FAE
0000
0033
0000
0000
0000
0000
0000
0000
0000
7729
0000
0000
0000
0000
0000
0000
7828
0452
0000
0000
0000
0000
0000
0000
0016
7E5C
0000
7E0A
0000
0000
0000
7630
0000
0000
0000
0000
0276
0000
0721
0000
7784
7EDE
095B
0000
0000
0000
0000
0000
7E7E
7321
0000
0000
7C90
7F3A
0000
0000
0745
0000
0000
0537
0000
0000
0000
0000
0000
7FF4
0000
0000
0000
0000
0000
05AB
0000
0000
7E06
0000
0000
0000
01F0
7EA5
0000
0000
00F1
0000
0000
7F90
0000
0000
7FB9
0000
7B4F
0216
0000
0855
0000
0000
0000
7FDB
0000
0348
0000
0000
0000
0000
0000
0000
0208
7DFC
0000
0000
0000
7E59
0000
7FD6
0000
0000
0000
0000
0000
0000
0000
0000
0000
03C8
0000
0099
0000
0200
0014
0000
0000
0000
0000
0000
0012
0000
0000
7FED
7FB8
0000
0000
0000
0000
0000
0000
7FA1
0000
7FAD
0000
0000
0000
0000
0000
000A
7FB8
0000
7FF7
0000
0000
0000
0000
7FE7
0000
7FE7
0000
7FFC
0004
0000
0000
0000
0000
7FF7
7FDA
0022
0000
0000
0000
7FD8
7FEC
0001
0000
0038
0000
0039
0000
0000
000B
0000
0000
0000
7FF3
0000
0000
0000
0000
0000
0000
0000
0000
0000
0000
0000
0000
0000
0000
0043
7FE2
0000
0000
0039
0000
003D
0000
0000
0000
7FE6
0000
0000
0000
0000
0000
0000
6B3F
0000
0000
0000
0000
0000
0000
0000
0000
0000
0000
7FF7
7F06
0000
0000
0000
0000
0000
0285
05AC
7F1D
0000
0000
0000
0000
0000
0000
0000
0000
0000
0000
0000
0000
0000
0000
0000
0254
0000
0000
7FBD
7FE4
001A
0004
0000
7FF8
0000
0000
7FF8
7FE3
0000
0000
0000
0000
0000
0000
0000
7FD5
0000
0000
0020
0000
000A
0000
0000
0000
0000
0000
0023
7FF1
0000
0000
0000
0000
0000
0000
0000
0000
0000
0000
0000
0000
0000
0000
0000
7EAA
0000
0000
0000
7FEF
0000
0000
0000
7BE6
7F5B
0000
0000
0000
0000
0000
0000
0000
0000
0000
7E88
0000
0000
0000
0000
0000
0000
0000
0000
0000
0000
0000
0000
0000
0000
003C
0000
0000
0000
0000
