3EF030A1
40006755
BFD3A4BE
BFFE8CB5
BE0173B8
3F1022EE
3FE501C1
3DB3F63C
BDE5B20C
BE01D7DC
BEAA7504
C01C19F0
3F8D212D
3E98ECFA
BF4A9143
BFB3A48B
3F146FBD
BF5430F5
3F0571D2
BF50C8DE
C029B318
3ECFE60C
3F27A7FC
3F262718
3EC2C5A0
3E3F9F45
BDFCE315
3E286D2F
3E4BC233
BF1912A9
BF1D439E
403AA1E8
BEC9AE92
BEE7EF17
BF4F3BA7
BF3D0DE1
3EF17A89
3F5952C1
3F707C85
3C309E99
3F64B220
3FBA87F4
BF4CB967
BFAC5ABC
3F8159B4
3F63252D
3E329FE0
3FA29C80
400C5FCC
C01ABF44
BFAA56AC
3F9635A4
3F265471
BF7BE36D
BD14F26B
3F08F67B
BF68F69D
3FFB1A76
BFE850D7
BF69578A
400CC37A
BEB75B1D
BEAE90DE
BF945A60
BF349214
C00D670A
BE4C7C95
3F270AD4
BD221427
3F0526D9
BF4469D7
BF016649
BEF3760C
BFAB0D7C
BE23EC03
3FCD8762
BF8A75F7
BFABB5F2
BFB1E00D
BEE15076
BE6FE79F
BF409E02
3F7887BA
3ED2ED14
3D3A6699
BF81591D
3E994728
BF5AA3BE
3D7AC604
BF2C1E8A
3ECA61BF
3F1BCD46
3D03F91E
C0010F1B
BFBFA598
BF9279F6
3F7136A4
3F356484
3F2AD8A1
BF84AE43
BF3E3AB0
BF7C9A02
BF0173B8
3F03AAEF
BD6C4502
3FF57D41
3F17508F
3EE1EB42
3FB5F584
3F941B65
BF552913
BEEA3BDE
BF82A572
BFA6640A
BF95291C
3F2E30FD
BE61F3A5
3F326BF8
3FC45C81
3EB22AB2
4012BD6F
BF0EDF50
BFB83487
3FDE33BE
3D3507EA
3F94785B
3ED23876
BF5F381D
BF22DCD3
BEC6A4EC
BE840BDD
BF2763B2
BF188EAC
3F68C597
BEEBE35C
BF9F7647
BF269E5E
BFB6873C
3E9F709B
3E96D3B7
3F515CD9
3FB74D72
3E641BFC
3E529CFE
C0151523
BE5ECB75
C01FFDC6
BE64B557
C01F82FD
3F96DD59
3FBC93EA
3F362941
3ED8C587
4012894C
BECAF7D3
BEFA6AA9
3C8B0D0F
BFDBE9FB
C0145EEE
3CBD3A1D
3F3B6C16
3F19DEF0
3F531316
BEDE12E8
3E46C1A0
C02616A9
C0139696
3FD03411
3F401B54
3F112902
BF952DED
3F68FBB9
BB90DE09
BEF8E92D
BFAA813D
3E047065
BF4B76A3
3F5B67E4
3F566278
BF1F8B9C
BD29899C
BDC47560
BF18B6FA
BE18DEF4
3D350C1C
3E5E09FF
BEC42B0F
BF5DCD2D
3FBAB3CC
BF76CF42
3FF60DAA
400A3D60
3EE50918
BF324DE4
BECE5040
3FEBC265
3F5830A1
BF929A5F
BF18B439
BED129CC
3ED3AB43
3EC64FB9
3EBEF805
BF274B84
BFC25F20
BFB7F63C
BD22CA9B
BEA87619
BF83FB61
3FB7A134
BF6EB8E9
BE7CD8DC
C0095FAF
BFB9BCB2
BE3020C5
BEB761ED
3F5133E3
BD8B239A
3F8924E1
3EF4C8DE
3F2B417D
BF5EB50B
3F870BA6
3F7A8A0D
BF01C454
3F70AE86
3EDBFCEB
BE99F666
BEF7C7C5
3E763305
BF851505
BE31C6D2
BF394003
3F9083BA
BF22CE14
BF351A97
BF5371EB
BFB2C5A0
BF65CAB0
BDB4DF05
BF49E204
BD9D65A1
3F9AFB1A
3E98BBD4
BEF4B0E2
BF78AA86
3F2AA4EC
3E7410B6
BEF0FA9C
BF3151B5
BF5B8716
BE98CF9E
3EA3AABD
BF25899C
3EEA6D26
BFC28777
3EA64CD7
3F0D9408
BE2AE7D5
3F0FD88C
3F045A81
3FBF7519
BC0F4730
3FB7BCCB
3ECF0803
3EE37458
3FABA501
BE5FDB4D
BE454B49
BF121251
3E4EEDCC
3E6CF3DC
3F9B2EF9
BFEB9F6F
3F33CFA2
C0060C5F
BF4AEB81
3F583D57
3F39FDBD
BE3DDA49
3F5C6573
BDF7DA62
3EA7D49D
C03C8E61
3F764CC7
3EED4824
3F804D6E
3E398A65
BF7C76E2
3F353501
3FAA7B4E
3DCE789E
3F538402
3E52B90A
BF8438FC
3E927E95
3FAE87B1
3D9AA4FD
3F27326A
39A52696
BF6D0646
BD4854CE
3EF0EDC4
3E584599
BD9FCDAB
3E3724B7
3FC3700D
BEB4EDD5
BEFC6866
39C282C7
3FB82667
BED43C7D
3EB414E8
BF3490A3
BE38E864
3DB9D239
C00F9C20
3E7F62B7
3E8090F7
3FBB4802
3E06E71D
BECCBE40
BF51DDF4
3FCE46F1
BEA61F9F
3EA88E7A
BF405FAF
3F78E087
BECB311A
BF37DC9C
4035D5D4
BE2BEDFA
BF754F59
BF251E54
40111C4C
3FC53F6C
BEC94D72
BE680E8D
3BE3608D
BF94C5E3
4008A99B
3F90C21E
BFADA7E3
BFA081FE
3C79C1F8
BF06EBD5
BF88EE07
BFEF1DD6
401BE886
C0091533
BF8A5908
BF44BED7
3EC39778
3E9BDB7F
BF58CE4F
C0171A26
3ECD1E54
BECCF50A
3FA54D0E
BF3A68C2
C01932FD
3EFF7985
3E0DAC69
3FA5D356
3F9402F3
BF70E054
3DA23748
3FFAB2F2
BE9F7C24
BF13ED63
BF1F2389
3D48D9F9
BEFE7CF2
3E12C4D6
3F8D5A9F
3FBFCEFB
3E2E2B06
BF380D6F
3AF94C88
BF3B6849
3F426938
3F5DC359
BF9A6C4C
BF36E7E6
3FB5F8FD
3E28CB8E
BF91D8F1
400A6806
3E91D1B3
3F8488DF
BE22C40D
BEE10625
3ECA4074
3F982307
3F85F2D4
4045B40F
3F95B435
3F658687
3CCF3BA7
BF799AFA
3FA1BE1B
3FA31487
3E6C0097
3EEABF77
3ED5AE1D
3D85143C
3DD2BC30
3F603BF7
3FA9A5CA
3F86718B
3F011A87
3D1AFAF8
3F170B28
BC9183B6
BEFD40EE
BF6C0D80
3FC72DC3
3F4C79B3
3FBB883C
3F7C9ABB
BF1660C4
BE9B8A1A
3F68C8BD
3EACA772
BF874079
BF12F284
BFA7462C
BF5AFFB0
BDE78B7A
BF5FE921
BF1423B8
3F867725
BF05CFFF
BE9BBFB6
BDA201CD
BF2A66FD
BF1F9054
BFFE9C88
BF82BFF4
3EE11D9B
BC1F6662
3F36EF4E
BC14D940
3F136534
BE47A56E
BFB565D4
3FBBE237
BEAE8BA0
BF2FB6AA
BEE6F156
BF4170C5
BEEE9553
4004D1E5
BF892C73
3E1ADEEC
3C591AB9
3F186866
BE340789
3D541A69
3F04C36E
3E876AD7
3F221965
3F04403A
3FA021F3
3F7A32C2
C0102AC7
BE63B9F1
BE5BA66A
3E9F3F75
BF2CC8EF
BFC07243
BFF82ABB
3FD704C5
BF1A5CB3
3F5B315D
40011FBC
3DA1C3F0
BFFB54F3
C017CE85
BF4E5ABC
BE5A3832
BED5B4EE
BE76E58A
3EB888D7
BE6B9D80
3F874110
3E8D5E8D
BE965669
3F69EAAB
3EA41CA4
3F320C4A
BFA3ADA7
BFE30332
BFC90D0F
BE6F5F4E
BFBC8E69
BFA44A27
3F6536A4
BF300CE9
BECEA897
BEC54089
BF89C287
BEA88D4C
BF24332F
3D8B990B
3DC9EBA7
BEB7AC60
3F876523
3F54305E
BD43DCCF
BF0A0642
BF041776
BE844220
BE6B6284
3F78E432
BEDDF99C
BDFD52C1
3EBA8B4C
BF9620BC
BFA935D2
3FBC366D
BC325F63
3F5D247D
BFAC1AEF
3F246C98
BF6AD613
3ECEEEFA
3F0935CA
BE8D7E02
3E2045FE
BE512FD3
3F0B1099
BF77D285
BE9CA5DF
3D060136
3F89D606
BE3C2D6B
3F36B820
3F7A2707
BE18F473
3E682F0E
BFA3C59C
3F91D90A
3F698277
3FB10ABB
BF122813
3FA92C38
3F992EF1
BE2561D4
3F32617C
BF4CD478
3F974046
3D01EEEE
BF9DD074
BE7834D2
C02B0EF5
3F0C7A4A
400BAD04
3F329260
BF738DA4
3F579703
3F6152A0
BEC8B71C
3F80886A
BF514CCB
BDF822BC
3EB190B0
BF15B50F
3F39C444
3F76FF19
3E3738A4
3EF308DD
BFA1C6DA
3F1773F3
3F0AA63B
3EDE1E71
BED781A6
3F318F50
3F7CF430
3F49E072
3F1A3897
BF8510ED
BE3F17BE
3F7CD9B6
BF399EC7
4039B129
3F5FBD7B
3FA5F43C
3C99BD40
3EBD2935
3F90D0E5
BE39A390
BF0CEE5B
3F95BAFE
3F95B131
3F244556
3F473073
BE0C4EF9
BFA212BE
BF508FC9
3F36F8BE
BFD3F9B5
3EABD3A2
BF153C04
3EFFBB73
BF8426C4
3CA3AF32
BF1D7A35
BF299C9D
3E776295
BDDD65A1
BF45C337
BDAA2DB6
3FAD1A43
3F9060E5
BF47312B
BF5C5BD1
BF141227
3F9140A3
BED95D2D
BF8C5AD5
C034F690
C04FFB4C
BFB19F02
3ECF2192
BF26FE1E
3F2F3ABD
3FB35FA2
401D1A8B
3EF4EAAF
BF5EAFDE
3EEA3C86
3D929E4D
BF1F0BF2
BEDA4485
BF988188
BE89C62A
BF628006
BF779F34
BFC994D9
3F9F1202
BEC2E83A
BE08E64B
BF1D59E6
BF1CD003
BE5F56EB
BF6ABD3C
BFBA8627
BF9BE908
BEC3B3C8
BD402D17
BF8EAEB8
BEFF56C9
BE88778A
3F14A86D
BF9C0CD0
3F170BF2
BFB0C2D7
3FBFB7E1
BF6134CE
BFA2820E
BFE2F428
BF439FED
3F28E1F8
3F45B9FA
3FB236EB
3D29FCF4
3EDE9B9D
BE656042
3FBAC062
3E0A8976
BF60A41A
3EDB7500
3F7D2168
3E2DD4C7
BE861544
BF73252D
BF62731D
3FEA4168
3E13A57F
BF1BC18B
3F638D82
3FFE7EBF
BF56BCD8
BE5B441C
3F9C0065
3F093F6C
3F197E67
3F9F519C
3F8022CD
400A87AD
BC98B2EA
BFA57482
3F03E932
3DBC5E70
BF37D61F
BEFE93E2
3C282E88
BE99A155
3FC9C62A
BEBD4CFD
BF168E2E
BF4C358B
BFA20304
3F9C0086
BF8091B8
3FCD926C
BE9465A5
BF1233BE
BF2C0981
BF62AE5C
3F5D259A
BFD3EBC0
BF5F88CA
3F59794A
3FCE26D5
BFF60DCC
3F4AF45A
BE1A1F08
BFA5FD9C
3FAE0536
BEEF542A
3F40DC12
3EE567FD
3FCAF145
BF6115DF
BE1286F9
3F25C77A
3E854F9C
3F4DDAF0
3FF8FCF0
BFB82071
BF5D21FF
3F8383E8
3DAA24CC
BE5C71D6
3EA35D68
BE6F7CAA
BF7A3BAC
3FE8C554
3E804AB6
3FB492AB
BF8960B7
BF3205EE
3EA697F2
3D6BD6E9
BE9D6A38
3DB03C8E
BEC12557
BF0D8FF7
BE81C971
BEB388EC
C06868CF
3F757EDC
3F9A086C
3D2DF71F
BEBF60BF
3FA7BCC3
BF90B884
BFB21826
BEF1EE24
3E3A1BE3
3E81E5C1
3F1096FF
3EB4DCCA
3FECA67F
BE708D8F
BEDA8156
BD8EF6F9
3FCBA648
3FE5CF14
3FA1548F
BEE24FCA
BEB25BD9
3E99A5EC
BFBCB513
BF27648C
BF06D949
BE28B6D8
C01B3A50
400C2578
3DA92CCF
3F3A0978
3F079746
3F162941
BFEB491F
3E5B3637
40049CE9
4005ABE2
3F7AF630
BE829110
3EED3B4B
BFC1F4E4
3E8C419A
3D2C53B1
3FC908FF
3F033440
BFB49EA1
40013DCD
3FAA3DBC
BE7ED41B
C0099DAA
3F76C7A8
BF31E68A
3E2CC144
BEDF5F91
3FD13483
3EC25B53
BF297C5F
BE64D09A
BF30D185
3DE822FF
BFDF226C
3FCA9B95
BE5CA8A0
4011E32E
BE657BC8
BFA957BC
3F80BDFD
BF4F1E3A
BFE41C9B
BF89AE3E
3F5ADE55
3FC11DAC
3FB743FA
3F8E8F21
BE68EDE5
3FB54129
BF444695
BF9915F0
BD5DFDAC
BF424862
BF889FBE
BFECEC4A
3F4F1013
3FC14D8C
BDDA4E7B
BEAE492C
3F9588B9
3F17B1AF
C023FCDB
3FE1D463
3F0A2A6F
3F53BFD7
BF362479
BFF5FA2B
BF9B1A65
3CA79DD4
3FDC424A
3F69A74C
3F9C622C
3FE06BD7
3F943411
BF0ABE06
BE80C88A
BEFDC26E
3FF82F30
3E634D27
BF330C56
BF0A9110
3EECA59C
BE163348
3FA8DABA
3F9CF97F
3F128C48
3F146823
4001B385
BE320254
BE9B2592
3F2ED289
3E161F5C
4006D335
3F388BA8
BEBD52C1
BE3AD0C4
403B7853
3F0EAD0C
BEE9D0EA
3F2B4F0E
3ECD7881
3C185F07
BF5C6C01
3D5986BA
BF9BDF2B
400A1F6D
BE405C03
3EDBCC29
3FF85DC0
3F450DE1
3F835C6C
BE97737E
BEEB007A
3F0256EF
BEAEC354
3F38BA84
BF252828
3ED30BBF
3FB1A765
BFD07F4E
3F4ABDF5
BB9CF56F
3F48B8D0
BE453501
BF428662
BF562F9D
BC10F734
3F73EDE9
BD5D3DC9
3F4B749B
3E660957
3F20F3ED
BF130AE5
400DBE2B
BF02F1BB
3F10EAAF
3FBC8E9B
3F21681F
BFA254C5
BEED6BA9
3F144B90
BE2C24C4
BFD28D3B
BE7AB3EE
BEE977A7
3F9153E7
BFB3A67A
3F25FA01
C01A1B7E
3F0D0A9A
3F6DE237
BE13C537
BEF6DBB6
BFD503E2
BE11105E
BEF40DB2
BF4E4A06
BFA829C7
3F80EA21
BF9D3EDE
BE1CBC8C
3DB1697F
BF81780C
3F07C6DA
BF0D24AF
BF57D599
3FAA30BA
B827C5AC
BF44229A
BFA88EEF
C0258C43
3F039831
BF9F81E9
400372A4
BEB71F9B
BF84625F
3E59D9D3
3E654B8C
3E6C49BA
3D0A84BE
BFCDB2DD
3F5CD25F
3F85203A
3F366A66
BF8A0885
3FB6814D
BFB848D8
3EDA90CD
3F2EC8D6
BE76F86A
3F390870
BF5A9121
3FE83FE6
BF4B07E1
3F3ED7A5
3ED776C5
3F043A21
BEBE0C5B
BF3B86D3
4055A448
BF3608D1
3F47E3E3
3E8AA130
BF93DA16
BF08065B
BF24A0C3
BF345261
BF0D4D51
BED350D3
3F9F9781
C03A73E2
3FA2D71F
3F070F06
3FCD633D
3FBC3361
3F3D27F6
BF75E764
4003466B
BD5651B1
3F1D4F16
BFFDCCC9
BE7C5A3E
BFEA04F3
BE003FF7
BE245133
BE95B941
3EDC918E
BF007D80
BEF3D2FA
3F2D2DAA
3F03BBC7
BFA131A1
3F2EADA3
BF353027
3DFCD680
3ECBCA97
3F95D91B
3F0DE2BD
BE49E27A
BD23FDD6
3F98C73B
3F32E979
3F2AEC4A
BF335BD5
4007B214
3F5218CE
3FAF9232
BE670B07
3FE08D76
3F1B35E3
3EE9A155
BF95CE53
3ECE0136
BF4A9175
3E89E386
3ED61BB0
3F7A643D
BF2E031D
3FF0B641
BFC4C450
3F62FE82
3F80744B
3F304285
3FADCD36
3FC13D86
3E4887EC
BFA5D97F
3EC9E9AF
BF86CB8E
3E5B1034
3EE4FACE
BFAE298D
BF9EBFB1
3F9A6DCE
400436B1
BE5DA273
400F54EB
3F19B35B
3D0FF759
3E6F42FF
3F232C0E
BEAABBCB
BF322058
BF5DC209
BF63B656
BF1CC426
BEB245B3
3F18DF37
3F6DA448
BF7C115E
BFB3989E
3E901605
3F2DC023
BEA32980
3DDB7846
40153958
3F7B077D
3FC01CB4
3D921683
BE0B866E
3FEFA06A
3F53AD19
3E80A138
BEA4C921
400D6C66
3EF08052
BFDDBDBE
C009D734
BE39B520
3F026D8B
3F7C73CD
BF6078A7
3E5F2303
BE95E615
3FA4FA40
3FD897D0
BFAC307F
3E6583A5
BF80DD0E
BF38C7D2
3ED967EC
3F469A2C
3EF418F8
BE3D8D37
3B8B2A6B
3F56B4FA
3EE20210
3EC46280
BE96FD44
3EA9D10B
3F3DD053
3F1D859D
3E5C4546
3F154BE0
3F7C60EE
3F6C9B74
3F8ADEEC
3F1EF827
BFADD4BF
3E18476F
BD599FE4
3FE1E64F
3F9531A1
3F1D1A87
3F716FB9
BFD08DA8
BE440E5A
BF7112BA
3ED35AC9
BFE9AFD1
BF5781B6
BD9C8DA0
3E026741
BEF2A151
3FC12778
BD9CF5F5
3DD6D97B
3FEB97C4
BF7D6799
BEB6DFA4
BF8CD917
BF71C337
BF1F879C
BFCD44ED
BFC0F1DC
3F7C28C3
3FDAAD47
BF795A4B
3F1F317F
3DC1B8ED
3E287B9A
3F113AC5
BE95DC1E
BF0B3797
3F463811
3F982603
3FF7C9E6
BDAE9036
3F8BA6F0
BF7131DB
3F049A89
C0425979
3F3395A3
BEEB8887
3F491EEB
3E58FFFC
BFBB0CA2
BF5E6289
BF813B08
BD46BACF
BF1AB2C0
BF5A9132
BD6DC8FC
BF81B906
BD5E98DD
BF7070FC
BF124799
BF41D91B
3EEFE261
BE1BB4D5
3F4B9171
3ED19C5A
BE00EF9A
BED88A26
BFBA6B48
40135094
BF4E00C1
3F5D66F1
BF3BC350
3EC2F74D
3FB0363B
3F683809
3ED4A6EC
3F1D09F2
BFAED845
BEF7C86D
BF2156B0
BEDBB235
BF55FCD2
3EEB673C
BE2A6ACA
BBA7CE10
BF7E5615
BE2491F3
3F6507C8
BF835454
BEF8CE2D
BEDA0792
3DDDDD2B
BE8B7458
3CE44524
3F9F3C8A
BFAA9A56
3EFCC166
BF838759
3FAB0C0B
C004EAA7
BF657DF2
3EF4712E
BE64AD36
BDB45C79
3F6D816B
3F023C21
3ECD01E2
BEA20F91
3EF6FE2E
3DA317AD
C02086E0
BF5FB2CC
3E6AC259
BE95E02F
BDF7E996
3F110F52
BF12D82C
3EE407EE
BF0C0D91
3B44588A
3EA9F0A2
BE9F0846
3F1D7ABC
3FBEBD45
BF63B0B4
3F033893
BEF90E88
3EB4794F
BE127D89
BFD2FC16
C0018790
BF107D0B
BF96605F
BE583BE6
3F4F2086
BE8448AE
3EE32852
BD748A16
3F756D1A
BF1B4129
BFA4336A
BE0A5F42
3F1248A6
3F8E6C6E
BF429814
BEBE6E65
BF53B03E
3F1B470F
BF7134BD
BFC24FDB
BC8EE6B8
BE1D4E09
3F845E5F
3DBCE182
BF8939C1
3F0125CC
BF883CEA
3CD19BD4
3ED996D9
BFB27A9E
3E223811
BF747C63
3FEB5DBC
BFB8A9E7
BEDBA1D3
3F0FE847
BEEF2A7C
BFB372DE
BF0A97E1
3EC8181E
3EA99CBF
3EB8F712
BF07634E
BE908228
3EB198D0
BE993144
3C80BED7
BF959A63
3FCB5DAB
3F583A32
BC3302F7
3E28D584
BF3D102C
3FD7B624
BFA975C9
3ED44AC7
3E1728A6
3F77D08D
BECA6373
BDFD93C4
BE1E0158
BF716C61
3E589C5E
BD9DF3B6
3F835033
3FB417A9
BEC0198F
3F45A8DF
3E9A4788
3F84C398
3D6EF1BB
BE2356DA
3F254A4D
3F8CC027
BF64ED5F
3FD5ECEE
BEA75A32
BE8E79CC
3F3E40B8
BF045DC8
BE0295A7
BFB9FDD6
3F396CD7
BED9EF74
3D94434E
BFB3D799
3F9BF349
BFE1C4A8
3FF46784
3F493006
BE42A412
3FE3A58F
BF44125A
3F8E3AFB
BF4181AE
3F96135E
3EF4DF26
BF0C2D28
BF028DCA
BD348B22
3F9906F7
BF098330
BF8ADFD7
3E77E49B
BF2B1855
3FE552B9
BED90F95
3ED58A55
BE9D6085
4001660E
3F3AA045
3FB4B4A6
3EDBF0BB
BFABB891
BEA6C41E
3F81902A
BF53048A
3FD1E415
BF09AFC0
3F9A6024
BF29B0BC
BEFB163C
3E30B1FF
3F65275F
BF4A391D
BF88DFBD
BFC8BBF5
3F91D0FA
BF482481
40190DC7
40219DE0
3EF9713B
BF7C9B41
3FBC0E28
BF8A7629
3F1862C3
3F9B931D
BE298CC1
3E0068DC
BFC99147
3FA59A63
BFC85F85
BED28241
3F00A2A9
3F72FC7A
3FB74F51
BDC77575
3E1011D3
3F122520
BF6F3B97
BE8DAD32
BF8A78FB
BFFA0BAA
3FDE8B09
BE933871
3F626927
3FBC03AC
3E1C6E2B
BE8C5A81
3F2EB94E
BFE75E42
3F5F1C86
BF83EB4A
3FE86F15
3F4BB55B
3EE86877
3F9C23EA
4040F734
BEBCCAF7
BF681095
BF55C6A0
3F94807C
BE59463D
BE3BE2F8
BEF1C476
3F8CD3D8
BF573472
BFB4771D
BEE1E343
BF84A71E
BF2E1709
BE47D4E1
BFAF9D2C
BE2ABF34
3F9B387A
BF5F9EAE
3E3BD05B
3FA5B1D9
BFB0974A
3F01D228
3F886845
3F7E54B5
BF95FE97
BF998C76
3FF1F994
BF532B88
3E88A505
3E1C8FFC
3F9F450F
3F9C7EC8
3DCDB057
BF44DF16
BF99EA9A
3F988E15
3EDB1EE2
3E35610B
3F96914B
BE7D6495
BED768E0
3EE64990
3FBCD480
BD26EDAB
3F04127B
BED04B1B
BF73F5B6
3F63C5CE
BEA1C7DE
3EA21DDA
3FA6EAB8
3F112E0E
3D9C1F86
3F908BB9
3EC8A201
3F1757E6
BF874845
3F15C68F
3F7AFA72
BF25B7F1
3FF599FE
BFBA5C68
BED9DB01
3DAF2C73
BF133DD1
BFB187A5
BF94AEB8
3FE004FB
BF8939C1
BE3AD96A
BFAC857F
3F2B074A
BED082AE
3EC9D020
BF6B62D8
3F9077BC
BEC66D7A
3F0BD934
BF8C1A8B
3EB79D6F
3FF3BC5E
3F8EE44B
3F318A33
BF4D2A30
BE3FD2E9
3F76D9AE
BD2DEEBB
3F588DF3
C00F0B9A
3E02D4D4
BED2DAFD
BF90295A
BFB5B0C4
3F4E12F9
3E946951
3FA1F099
3F79578A
3F331DD6
3D6BCC6C
C05C1B4C
3E1E59F3
BF78BFC2
BF4C4977
40104D49
3F3208C0
BF23328B
3F79199C
3FCE8A26
3F36556D
3E586AD3
BF20C910
3B0C7193
3E49E732
BF5B0803
BFDCA6B1
3F5F239A
BE11E3A8
BE2AD539
BF5AA9F8
BF49BA6F
3F7DB856
3E92E6C9
BF1FD189
3FB4A583
BE41E3EB
3F82C48B
3DAC0A4A
3D5C7DE5
BE8DC3BD
3DE817FC
BF63A509
3FA42342
BCA71583
BF1E7E41
BF051FC5
BF15E53B
BD0DCCA7
3FBD69DB
BF0D48FE
3F297343
3F706595
BF9805CD
3E99CDA3
3CA67A53
400877AB
BE8B74DE
3F0446FA
BF4B250B
C021401C
BE11A693
3FF1E879
BF599924
C003D76B
BC051223
BF9E6F9C
BEFBABA8
3DFD8516
3FC352C1
BDB1715C
3F39E56D
3F9FBE2B
BF1FCE74
3ECD6A59
BEB0DBCF
3F59FB0D
BF414D72
4030BEFD
3D1D4B6A
BE2647FE
3FC9939A
40184485
BF92A4A9
3F6F57C5
3F863ADA
3E1ECD4B
3EABCF70
BFAC7504
BD725D4A
3F484652
BF6BB731
3F224AE0
3EBBC0E4
4002041D
BEE7223A
BE21422D
3F07A398
3D9CC4AC
BF7FB8F5
3F654489
C01040FF
3E955FFE
BF61A815
BF9F1106
BED7BE34
BF32FE93
3FCD4163
BF4606B8
3FDF67F5
BFDE88A4
BE8C4B0A
BF5C4A73
3EE45804
BFDE2BE9
3EDC1355
BEB14446
BEF8F302
BEDF3E25
BE96D8D3
BF72DE01
3E0D31BA
C001B7F6
3F8C5387
3EC65387
BF93328B
BF5D615F
3ECC6A3C
C0357597
3F46C58F
3FC9327B
BE7CB46C
BD8854CE
BE99611C
BFA17BFA
BF0C2667
BF943CD1
3E6E774F
BF33AE8A
BE9B6417
3F2E19CA
3DE35697
BF8457D1
3F83583A
3E2346DC
BF6200F3
C01E2CC3
3F91B939
BFCBB63D
BF539BDC
3EC49E23
3FDFE261
C013C62A
3F0FB528
BF905CBC
BF0B5350
BF6F6F3B
3F13457C
BF78F1E5
BFA51705
4013F9BE
BDED8F50
3EFF192F
BE61ACDE
BF00F91A
BF1C155D
BDE37931
3EE4712E
3E90E326
BF9A5ACD
BF36D95A
BF8F4A23
BFCC2F1F
3EA80304
BE0BBDBE
BF5034D2
BF36DCA0
3F98AD2E
3E1037D6
3E3DE1A0
3ED33333
BF1BD502
3E7A62ED
3EB1EC0B
BF4851CA
3F511FB4
3F83AF7D
BE55970B
3EFF9C20
BE946845
C01D779F
3F06F76E
3FC30718
BFC8C9C1
BDF4141F
BFC912F5
BF8AB980
3F15E258
3F8F1740
BF55EA89
BF41BE6E
3FFBAB6D
3F0C6DE7
BF3C900C
3E1D4B27
3E84295A
3E508C3F
3F48768E
BF402E55
C00B40AB
BEFE1B8F
3F4BD146
BC08EBCC
BF1CBFB1
BFD788EC
BF0C8605
3FC2C3A8
BF17ECFF
3E5CB1CD
BFB3D9A9
BF609A78
BFEFBB30
3FE36AD7
BF30C693
3FB0F69D
BD31C10D
3EA46434
BE629AA2
BFC60254
BFC7C24C
BF6DB542
3FD57F17
3FEEC28B
C0077AA2
BFAC685E
3FCC19C1
BF270C35
BFAB038E
3F094014
3FD2DB05
3FED1F9B
BCA65ADE
3F3BC2CA
C0111266
BF9C95E1
3E361B6D
3F57B4D5
3E920FD4
C0042E5E
3E847D3D
3FF77250
3F2D42F6
3DE5CF68
BE11E215
BF33AD08
3FC0A726
BF0B2ABF
BED7778E
3F03B40B
3F228512
BE90F627
3E272474
BFF3A9E3
BCEEFA1E
BE8E8F2A
3EFB10BA
BED4816F
3F6555F8
BE919418
4046FAB5
BE6E568A
BCB8C32B
BF0A7BB3
BD8F8162
3FA23316
BF5F762E
3F72338B
BE56833C
BFAD33A0
BF019381
3F0F9B35
BAE75793
3FD0B967
BED3BA34
BEF1D5E5
3FD39F77
BF70CAA3
3DFB1D0D
3F4DB35B
3F6B1434
BF8A0E7C
3E2BFC65
3F4B369C
3F4A65BF
3E72680A
BE2FE08B
BE899BF6
BF83DDD3
3E642CC3
BF99C7D6
3F0AA9B5
BF01511E
3F06C472
3F4FAD4B
BE353C15
3F9AAE08
BEE85250
BF3E9585
3E880453
3D74F0D8
BF1FE165
3F3E1DB8
3FD5857B
3F910B5B
3E50C5A8
BE53543B
BE38FE69
BE8CDA6E
BE512AD8
BFE36A05
3F8B2C52
3FDFAE25
C015450F
3F5079D5
C04BEC42
3FACEC29
3ED8129D
BF287B46
3F51B552
C00C3522
BF560A74
BD0CB8E1
BFBB36DF
BEA7F9B5
3EC0C3B1
3F8490E6
3D379D91
BE97C350
3ECBF37C
3EBD3EB4
3F53B7B7
3F2B80ED
BFC248AE
BE8F6230
BFA9FADB
BFB722C0
BF9A7770
3FADDE27
BF674D16
BECA0BC4
BF4DAE4F
3EF316C2
BE8714BA
BD92F7F5
BE61EE67
BF6EF017
3FB59F2C
3D255B03
BF2AD118
3F87BEF5
BFA16178
3FC972AC
BE9DB318
3F5F4ACB
3F630963
BF5F2D0A
BF244428
3FAEE558
BDE7F887
BF9471C5
BF2B301F
3FE85333
3F1857E2
BF10CD85
BEDD6085
3F27C5EF
BF07C505
3E649ECB
BEC08E37
3F307BBB
BF3AA38C
3E51E860
BF52F523
3E388EBD
3FCCBC41
BF3B31C2
BF29CB14
3FC2D467
BD97B95A
BEC45F39
BF72AAE3
BFB1FF2E
BF86E5C5
3E190258
3F367568
BF90A887
3F85CBD5
BF5B97DD
3FC4C02F
BDF55C53
3F4EB4B7
3F836CF8
BE43736D
BDE4430B
BFA8BC06
3F312DAA
C007C904
3F543EFB
BCD8D152
3EA1B867
BF02177F
3F7A8C7A
BDC11127
3EF72D1B
3D8189BE
3F3254D6
BF3C12AE
BF6BF10F
C0370853
3F187B24
3F8387F9
BE9E20AB
3E9E1805
3EFC801F
3ED0B567
BE2EE5EF
3F2944ED
BEAE01BD
3F78D057
3E653F3A
3E1A964F
BFEB6EA4
3EF564F9
3F989891
BDC9491F
3F70C4F0
3EE865D8
3E283D36
BEA87768
3EF18266
3ED95593
BF9A97C8
3ED243FE
3FABACB4
3D20E51D
4011ECB3
BDE4DA90
3FD2AB1D
3F1E33DF
3F82AE86
BE354F7B
BF5931FD
3F46E968
3F861C8A
BFB28AC6
BF363337
3F918C43
3F0239A4
3F638D61
BF859408
BF84E8D1
3F0AFE61
C000F80E
3FD45F74
BEEB89B5
BEC74129
BF29421C
BF74C0CF
3FBA3E96
BF0A134D
BFE651B1
C00E8D26
BF820557
BF2D00B4
BF3629A6
BDBA1C26
3E187C63
BEA030A1
3F886E01
3F9AEB68
3E9FD5CB
BEE5B164
3FAE04EA
BDE8E608
BE293A71
3E0CAC08
BF57022E
BDA63411
3EC56BCA
BF8B5DB3
3EBFBEDB
BD287A07
BEB10300
3F86A8CA
3EBC898F
4000E6AC
3F673786
BEC7E953
3FAAF095
BDFC6C12
3D9D73C9
BBB1DD5D
BD6822FF
BF9E78D1
BEF4050C
400E4C94
BD1DA8BD
BFD41D97
3F032FFD
BEF3267C
BF5708EE
3EB15CEA
BE3715C6
3FE678F2
3F7823D9
BFC4FDDB
3F6AD395
BF222718
3EEF85D7
BF0698FE
BFD3A544
3EDE9963
BF724D0A
BD91B25F
3DB753A4
C02CD35F
3EFB6D44
BEDE42C0
C006D09A
BF562425
3CFBDAD7
3F345DD9
3E2D49D8
BF14C0F0
3E9DF634
BFBB1E00
3F088073
BD701D9F
BFA486C6
BF7F5E96
3F0ADA98
BFEB271C
3F26B1E6
3F5C5F18
3F0B224B
3EB215DB
3E62F662
3F4C7779
BE96AB9B
BFF73B54
BF59A3B1
BE81F362
BE559A74
3F913133
3EA5F783
3F52CCC4
BFF85A8A
BF28C75C
BE22B40F
3EF70B07
BDC327EE
BFB3EB64
3E028D86
3F7AA2C2
BF8BDFA0
3F054973
C014520D
BF774B62
BF0FF887
3F181B76
BD3D2A63
3EACB902
BFC5C5B5
BEC6D99D
BEA2A412
BF81C98A
3FA4563F
3F42A93F
BE69FECA
BE9FBF83
BC91C4B9
BE296B76
BEB7E111
40069086
BD927E52
3FEDA76E
3FA49271
BEEF91A3
BEDD1D04
BF108BFC
3F386B7B
400E767D
3EC8D8A9
C01A4D1A
BFC38E65
3EE2CC4F
BE816D09
BF127019
BF396F33
3FF79664
BE0FDA83
3E5887A9
BF5394B8
BF556606
3FA43ED1
3FB78B2F
3F6488A4
BFC6660A
BFFC7610
BE9F1B8B
BBAC96CC
BF2F45E1
3FA2E821
3E854563
BEB0CBF3
3EECB663
3FC1C2B9
3EC558EA
3F9ACAC5
BBA0DBAD
C00C092D
BF8BCB2E
BFA9A8C6
3E9426FE
3F0441EE
3E8C83A9
3E9FD0AF
BF1A83D3
3F8A2B0F
3F3E4D3C
BE69D55E
3E1EF241
3F316FCA
3DC7021D
BE49146E
C0036DEC
BEC1BD1F
BF403F3E
BF43C600
3FD8BAB6
BD3C42A6
3E6E2D62
3E5FB86F
3FA3BA80
3F88CB43
BEB5C140
4005BD49
3EB72863
3EF3825E
BF8BA01F
3E7A7504
3D90C027
BE97C287
3EA32980
BEA0FFFC
4032A112
3D38D0CC
BE918AA8
BCF9CA5C
BDEFD220
3F6998D0
3F6B4BE8
3F7657A8
BF842752
C01F57A8
3E5C3090
BF600325
3C57DBF5
3F421D97
3F343DBC
BFD42D30
BE329AE5
BC3DF8F4
BEEDBFCF
C017B463
BF91C44C
BF7F2F01
3F28E93E
3E98403A
3F499FB2
3FE1E682
BF7EE58A
3F0C3BF7
3F5748F5
3E933786
3E2C84B6
BE059FF5
3F0E01BD
3C43DAB6
BE1328B7
3F056A05
3E13F35A
BE179BFE
3FD5F783
3FC90931
BED52C38
BEF71F15
3F98D6B2
3F2254D6
BF93A787
3EC4F4E8
BE40C804
BDD3E921
BF7C5CFF
BFD841B3
3DFA9436
BEB323BC
3E62F512
BF54F334
BDB54089
BEE4B44A
BECAE8E2
BF283B2E
BF045847
4017BFD7
BE273040
3F61CF35
BF2EAC86
3FA6E643
BE8FC222
3FADF2ED
BEAF2DA1
3F8B5B25
BE7A5ACD
C02FFAAD
3F239FFD
3EB97EDC
BF5EB1E6
3E700325
BFA93B43
3EED5AC0
3EEBD05B
3F338EC1
3F9FA933
BF8573D2
3E8C7885
3F9F8549
BF97E133
3E6EDEDB
BF12D00B
BF625C0C
3F75F384
3F76391D
3FC65D10
C047D520
3F452232
BF8F0282
BE0A558F
BFB706C4
3CC167A9
3F480B56
BE2BA1B2
BF28ACF3
3FC9E79F
3FA6CB7D
3D91D713
3E97AACE
BF16E819
3F8B0CDD
3F82E714
BED45176
BF18850A
BEA6E115
BF896F22
BF1BD018
BF7CA86D
3F77FB8B
BF57B917
BFE886BE
3E43BD9D
3F4B0404
BFC9F5A5
BFA9EFE1
BF1C0E28
C0185B14
3F54942D
3F02BD7F
BEBE106B
3EB44652
BD3D9664
3D58D8A9
3F8FA5C2
3E81A587
3F38E608
3EDC304D
BF883034
3ECF50A0
3F5ACAAC
BEBF3D7D
3F2E6A23
BEA1C326
BF69A448
3D741F21
BEE4814D
BF37BB1F
3E0D28D0
BE972ECF
BFC5BC7F
BDE67A53
BFE05B9F
3F493826
4013681B
3F4DC93F
3F0DDFB9
BED7A872
3F285F39
3F233040
3F7EAB69
3F80ED46
BF8B9086
BE0C3FC4
C01A0B5B
BDFB2FEC
3FBC5743
BEBEB0B8
BF0FADF3
3E64F334
3F900642
BF1539DA
3F013459
C0065547
C0045F6C
BE31C2E3
3EDF6C27
BF053B7E
3E29628D
BF162446
BE414270
C00C43B7
3ED35137
3E7A8049
3F143FB3
BD017657
BF8AED57
3FE74917
3F82B053
3E68AAC9
3F621017
3F1B05C9
BF8A9920
3F58CBC0
3F097375
BE2ED4A2
3E88218E
BE7AC68B
3F2A00C1
3F4C50AD
3FBF7A1C
3D0FECDD
3CC37C57
3F15D2AF
4008D64D
3F1C1BFC
BF96ED70
3F85C0EC
3F4F5600
BEBB415B
3FD5F384
BE0A38B9
3C95DF65
3E941483
BE4F5CF2
3FB3802C
3E27A9A0
BFAD3416
BEFBD252
BF560547
BD1FA00E
3FBFE0CE
3FA064B2
3F99B164
BF0CD046
3F968D7E
3F538BAC
3FF232A0
BFFB518B
3FB568D7
BF1FB667
3EAC0831
3EA77469
3E92C40D
BF1CDAD3
3EEC4FE3
3EFA17B1
BF656085
3FFC6317
3F81D1AB
BFBA56E7
BFCD5E7D
BE58E8A7
3FBCD046
C00D2E17
BF439CB7
3F40FB01
3F310269
BD06BDF5
BF028A50
3FA5CB8A
BF35E332
3F2B3CE6
3ED7D9BA
BF6E8E71
3FAB37E3
3F8AC98E
3F42DDF0
40001905
3EBEC482
3ECEBA8C
40182A2C
BEFDAC69
3F051E54
BFF284C7
3FB8896E
3D49C4DB
3F10C0AD
BF1A18BD
3ECBC59C
3D2734F8
3FB2E8A7
3E50F16F
BF8448A6
BFD7C811
3F5B9CE9
3F398C09
BF892967
BF361911
BD92A5A4
BF65ED5B
3FD4AD58
3F35A933
BDF7AAAC
BE89EFFA
3DA43244
BE5BC0A0
BF9AB10C
3E84F00F
3F1679BC
BFAFE4F7
BD9B224B
BFC79B35
C04F559B
BF762920
BFE5AB4B
3F8205D5
3E2F1D82
3EB32EE0
C0260B78
3FBFA05A
BF1E3715
3E831CEB
BFCC4ECF
3FDC93B8
3EC88BFC
BD959253
BF920B91
3F336816
3F6C216C
3F7CB1DD
3E9099BF
BF8B89D7
BF9085D3
BF6BBFD7
3F5BDDA9
BEDD2C17
BE8E3E29
3FCA86E8
3EB4254A
3C68AF81
BF8538A4
3FB02079
3F11BF59
3DDA09CC
BF2107EA
BF3D9115
BFB9E226
3E809ACC
BF6854DE
BEAE0200
3F9F02F7
3F031AB1
BE3C9364
BE95A576
3F490AEE
3E874FB5
BE904D34
3F882374
BF4A6B61
BCDCE9E6
3EB62B28
BFC6EDEE
3C2A25D9
3EC0EAC0
3F98997C
3EC84E1E
3F163012
BF071BBD
3E762563
3F022132
BD3076C0
BF41F2AA
3F25131F
BDD416BE
BEDB5782
3F0A5CA3
3FCF4888
BEADE15D
BF97A765
3F1835BD
3FCB4984
BF909E90
BFA21123
BEC674B0
3F0C4C9D
BFA1F224
3F6CD5E9
BEA8B4E1
3BE5FFA4
3E4E7297
3EE1333C
3E6DA405
BFB9341E
BFAED0F6
BF24446B
BDE95A6C
3EA2B756
BED74FD7
BF3A8D43
3F5112FD
3F578F69
3F1528E1
3F554F59
BFAD0050
BFD3FB1E
3FCA493D
3EDD156A
3E91A848
3F543E85
BE8C4418
BE357647
BE96AD2E
3F8C8188
3F2F51BD
3FD50364
3FAE02E2
BF8E8BF4
400C72C5
40003733
BEF0DE4C
BFD84BCB
3F8946C3
3E0239E7
3DD54DA5
BF807547
3F1E235B
BEFBCFD5
3EA32336
3FA06B48
3E6705C9
3F97B6C3
BF76A077
3F559221
3E849364
BFA107B8
3EFD0E56
BF5C5825
3F6EDB62
BDAB46BB
BEEB8801
BE66A876
BE0F4517
3F41BEC2
BFDE56BD
BF97B036
3F981A93
3E2F86A1
BF61C6E3
BF37761D
3EDC0A6C
3F92C450
3F0EE05D
BFE4AFD5
BF70A266
BF8B4D05
BDAE5604
3EE81F75
3E9B6BB1
3F793FAF
3FA7A1C2
3F255183
3F639E38
BEB39DC3
BEE272C9
3D82B27D
C04F6A1A
3FAA1798
BEB8EA7D
3EDBE4EF
BDB86B9C
BFE78AA0
BF594B5A
3F9D5F3D
3EC0B6B7
BF03C9EF
3F00E725
BFBCD024
BF4F7996
3FB8521E
BE28283D
BE668406
C00D0E34
3F859C73
3E7272C9
3FA2D8DC
3DC37F7C
3EB5BA0A
BD445CBC
3F82C6EF
3F94CFD9
3D69AF5C
3F799FB2
BED061A6
BE5D145E
3F81BB06
BFB12D77
BF253B7E
3F58B168
BE97A9C1
3D972B45
BF085815
BF83D999
BD9E2930
BDAF6C6A
3F2119F0
BFD08933
BECAF35E
BF84E7F7
3EE885B2
C0379043
3EE8A71E
BEE32FA9
BF660F4D
BF529A4E
3E1CD424
3EB751F0
3F299008
BF801AAC
BF13E32A
BF78B8D0
3D3E1C9B
3F130A1C
BE74B6A6
C05FCA9B
BF8DC958
BF027696
3F86EC5B
BE877985
BF5D5443
BF868590
3DFA07B3
3F1B7FF1
3E93B4B3
3F9D99FE
BF05D00F
BE8CDA90
BE881388
3FC27A96
BEBD81CF
BF59883C
BF9086CF
3FFC285F
3FABA94C
3F395E07
3F78FCD6
BF3B9AF2
BF37D45A
3C8A99B7
3FB39F77
3E76D04E
BF43AB32
3FC363DC
BFAAD307
3FD95DDD
BF0E6DDF
BF333637
BE33CEEA
BE1B45AE
3FDB891E
3E6AA759
BF65B2B3
BF827F3D
BE9CEFED
BF814246
3F64E11E
BE37AA26
BF89C287
3F005FD0
3F0BDA30
BE820621
BF973BDA
BF915E8D
BF8BD684
BE34BFD3
BF7663A6
BCE30CAA
3F451DEF
BFC9403E
3F7D94F2
3F6BF983
BED847F5
3FD30A1C
BEFA9FBE
BF0EE547
C02F851F
BFDEB45B
3F3F8445
3FA88B7E
3B9C23B8
3C0BFC22
3F4E703B
BEB7E026
3E21B153
BFA6A644
BEB7DEB5
3F8C4F6E
BF63E6F7
3F74307F
3F7F4A34
3E9F2F98
3DFB1C00
BE5712A1
3F5FEC25
BFE4D30F
3DF969E4
3FB5D3C3
3F0A3C75
BF8E3B15
3F1D21BC
3F45BE0A
BE1DA6A4
BF3C4007
3FC93EEE
BF4FB9D0
3F508323
BF0AC14C
C019A21A
3F96BAB6
BF663C00
BECDC619
3D506467
3E895BBC
BF792B6F
BF9A2121
3F439778
3DA9B1FB
3FA52945
BFEB84E4
3FF05754
3F4E9186
BF8475D5
BE1B1D50
BEC31056
3DC0C309
4007F4D8
3EB2A51E
3E9CF3FE
BED40E17
BF96367E
BF773AAC
3EEE7E20
BE167169
BED115BE
3D1BDA51
3E7DFFC5
BEAF969E
BECCCCEE
3E2BB279
3FD89BAE
3F7D692B
BE9C2AED
BE2FFC98
3F8B7E91
BF9BAEEF
3EBDD1C4
3F3BFC65
3EE73A36
BFF5A976
BFF2BCA5
3E6EC248
BF39B23E
BE5BB129
BE64F484
3F00BBE4
3FA3450F
3F034092
3F1B6BC2
3D1B8AA0
BE7F7660
BF0D4CDB
BF87F773
BEDC15F4
3F815958
3EEB3BB8
3F618A98
BEE69F06
BF8B4F7B
3F84C8AC
3ECD32C6
BF1D6799
BEB5117B
BFDB0E02
BF014584
3FFCFAC6
BE69BF9C
BE8898F6
C05F0A39
BEA41637
BFF9F97B
3F079064
BF26BAAE
BC4753E7
BF814F83
BEFD3459
3F2B0197
BC4D78C4
BF13C127
3DB8F81F
3F923E32
3D8DB489
BEE53437
BF0DBBF1
BFA5D4E1
3E852D45
3D4FC936
C00785F9
3FA96274
3F6D9631
BD633ACD
3F818152
3E929197
3F911FB4
3F47151E
3EA73E25
3FA9D8B6
BE4DD053
BF0A29D8
3F7816AD
3F7F0585
BE6EFFE3
3F0B6E72
BF76239E
BFE4EBF6
BF6F8327
BEDE8406
40036406
3F1D8644
BE85F740
3E5CE5F7
3F0335A0
3F65A661
BED099BF
3F17E7D1
3E9A2813
BD78BEF9
BEE0ACE2
BF7655C1
BF7B417D
3F8162D8
BFED7DC8
BE9FB4C4
3CAE9EE4
3E22E83A
BE7B19E7
BF39028A
BF9B58F3
BF8C5522
3F23266C
3DA18F82
BE141A26
BE92AC32
3F5455EB
BF0CB1FF
BDE69A4E
3E72D59D
BF15D756
BFA85005
BFF2ED81
3F8E7AAF
BE5EF955
3F49EE35
BED6AFAB
3E3AF966
3F53ADD1
BEE2A950
BF6F357E
3FCDDC9C
40117F4A
3F9F8317
3FCED784
BE11D7DC
BEC0F606
BFB45871
3EBA31C6
3FC74BB6
3ED6CE57
3E4978D5
BE88C826
BEC0ECD9
BE511127
BF2DB813
3DC1376D
BF27CCD1
BF4D2B2C
BEF47BEE
BFD8556D
3E8791E6
BEF03F70
3F8B969E
BF128EC5
BF9962BF
3FAA919F
BE21B2A2
3F8E5A47
BDE53544
3F382BC7
BEA341C0
BF3DFF82
3F91BE90
3F262F06
3E9C7F78
3F74621B
C0098440
BFB4B474
BF9E869C
BD8F0953
3ED37A5F
400E97EE
3FCA4966
3E26CE79
BFADD170
BEFBB4F6
BEFEB617
BE8B4938
3FB4CFC0
3F450508
BEC1BFDF
3E632379
BFA7497B
BEBAC083
BF560F80
3F2CB5DD
3E75C465
BFC9A259
3F71FCD2
BFCBD8C7
3EC18FC5
BF70AC3B
BCB4373F
BF15E13B
BF3B62FA
40096488
3F2E78E2
BF3072B0
BF560275
3F821C15
BF74B168
3F1F4784
3E0177EA
BFB0C016
BF3D2DAA
BF3548AA
3FA421AF
BFD4EDCC
400AD7B2
3F9631D7
BFE03DB4
3DE84838
BFE08523
BF01C3CE
3A00303C
BF4889A0
3F4D0A13
BEDA13A1
3FB6476F
C009E48F
40128B1E
BFC8F694
BF416D7F
3F110FC7
3E561B2A
3D366A55
BF3BA26A
BCB98A65
3F975979
BF685FE1
BFAD1783
3E51A8EF
BF6956B0
3F701B97
3D9E1199
BDB69B17
BDCA30DB
3FA98C54
3EDEF04A
BD39F341
BF2FE426
BDFD0E13
3F29AEE6
BF0C2C0A
BF445910
BF484391
3EE2E4D2
BF83DFD2
3EF35C5B
BF342246
3E50FE04
BE17BE98
BE812C28
3D52DDBE
3E3DDF01
BF34C5CA
BDCB5ED9
BEDA2FF1
3FC9B9D8
3E58AA43
BEF2A5E8
3F8E7B3E
3F061683
3DA3EA70
3FA19360
BF50FB12
BE98448D
3E9D171E
3EE2ED78
C006EF85
3FA3908E
3F0AB3FF
3E96002A
BC4E4EAD
BF4F17F0
BF392DBA
3EAFE458
BF7BCC29
BFCABC51
3E87F823
40008948
3F94BCB6
3F22F955
3E8B3A69
BDFC371E
BF199C17
3F77F5D8
BEC59D34
40028ECE
3FC96E61
BEF97AEE
3F358D04
BC834F40
3F2ABFFD
3F4C0B78
BF326699
BF985155
C0016280
3F554B16
3E086013
3ED3BFB6
BEF2CBA7
C00AA7D6
3FC7DF65
3F5DAED5
BFE3EC4E
3F8C2563
C02188DB
BEAE075F
BF59D15F
3F8ED4D4
BF174891
BFF40903
3F1C84D7
BDD5A31A
3EAE7A74
3F56F6E8
3FACE27E
3F6554A8
3EE05708
BEB27158
BF7951A4
3F336007
BEBAE3E7
3F61D3CC
3FC51394
3F9DA166
3FBDA1E4
3EE4C921
BEE8129D
BE867BA2
BFAB2242
C031086C
3F861EB4
3FFF41F2
3E84677B
BF3B66A5
BFDA429E
3EF91383
BE86494D
3F9EA6FC
3FB8BB77
3F9F6F76
3E4E7FB2
BFDEB94E
3E4C0B9A
3F894C4D
3E1758E2
BD8CC921
3FA020EF
BF9AC11A
BF924357
3DE0431C
3FDAB23A
3F960496
3F566C09
3E697BB7
3F317907
BF414489
C010F3FE
BDD3DC8C
3FE08E47
3F7D87C6
BEC13A50
BD57E026
3F0BE74B
3FB974BC
BFFF9807
3EEB9B67
BF2CFBFC
3FB5FD72
3F850225
3FAC31A5
BE341F21
BFDFE860
BEC11A76
3E7D5F57
3D9AB7DC
BE6FDD23
3EBA1965
BD16DC1A
3FA39C0F
3FEFA711
BF14AAC9
BF34C5EB
3D8F06B3
3F235BC4
3EBF8C87
3F66771D
BFB8E421
3F117E78
BF34066C
BEC4C1A9
3F7ED7F9
BAFBCA10
3E6543F2
BFE768AD
BF2F735C
3ECAF70A
BE540C41
BE016CE8
3F2355CE
BFF2EC39
BD4BE61D
3F9C17B9
3EA57082
BF12C4E7
BEBD4F59
BF0BC526
BF58969A
BE2FE868
BEDD7625
BF031013
BF471801
BDD318FC
3EAC3E32
C00773D6
BEC5AFF3
BE25CE18
BFEF6588
BF808E9B
3E8D7C2D
BFA5AE60
BF825658
3FB30C3D
BD6D7625
BF8E316A
BFBFEA57
BEA5870E
BFE91EC9
BF2BEFAE
3DDA365D
BECABB66
3D855DA2
3FE07DC3
3DE1FD9C
3F53DB2B
3F0E2014
BF5EF86A
BEDCE6E2
3E1FB507
BEE45027
BF3ECA36
BFC32A28
3F7BFF7A
BF131D71
BE9C8777
3F99F245
BF96D9E0
BF0E2D0E
3EC8AB71
BF3410B6
BFB1ADB0
3EF455A8
BF9A8709
BD9A0F91
3F8BE764
BFF3A965
BF048F11
BE8F574F
BE37C41A
3FA35C31
3F30A698
BE8188D3
BE262E90
3F8A068E
BEBB280F
BF19A565
BF132C73
3F0812F1
3FAD53F8
3CB4EB9A
3E9AA62B
3F881E0C
BFF8332F
3FB1E01E
3EC59E84
BED2B68D
BEB29718
C01C5161
BF144D77
3E7D8234
BF6F3205
BF01CDE6
3CA2C01E
3D1275EF
BF8F589F
3F215C74
3FC88438
BFFF2E8C
3FAF28C8
3F620382
3E679FA9
3FEDDCAD
BFB66339
BF17F4BA
BF021F4B
3F81B14B
3EA30425
BFAC53E3
BFA04D0A
BEC31423
BF64A490
BFD99514
3F84D99D
3FC58CA8
3D40B780
3FC78B15
3E00D23D
3F438024
BF1ABAF1
3F8CC576
BEBBE921
BDB783E0
BE93677F
BED8A809
BE81563B
3DE7008A
BF22C1C2
3F5BC7E7
BF40901D
3EFA6C7F
3F7C7A6C
BE9CA05E
BF0B0404
3F1915F0
BEB258F7
3F9CE9F7
3E3B506E
3F83A5A9
3D1DBFCF
BD2133C2
3ECF125E
BEB8CE2D
BFA45111
BE9918A0
3FEBCF70
3E3E978D
3F20F2F1
3EE31F04
3FBEA915
BF679BCC
3F5B7015
BED4BAF9
BEA292A3
C024007E
C0061AD2
BFBC29D8
BCA15981
BC742785
3E9E4A7B
3EFCF26B
3F392136
BF12D15B
BF5C815E
3E9C957D
BEE9C0EC
3F2E99A6
BE4FF434
3FD6E6A7
3F589071
BE386E3B
BF24A86D
BF1726C0
BE9D8299
BFC30F30
3F3DB74A
40094FCA
BCCE8FB0
BE14FB98
BFCD9BAA
3E68DC98
3FAFCFB3
BEF324EA
3DB8F367
BEC1F278
BF415193
BFB8C22F
3E5B83CF
3E91EA14
3FB45511
3C1841AB
BE97FED2
3FB8052D
BEB2EA74
3F43F994
BFE1203A
3FFF4385
BFA6EF89
3EB9B4DD
3F826BCF
3EA347C7
BE1C4114
BF99DDA9
3F3BC2CA
3FDD354C
BF3F2D2C
3DAD00B4
3E1F301F
BEC6ABDE
BFDE81BA
BFEBC611
3F2418E7
BF0887FD
3ECFC611
3F084029
BF3468BA
4004222D
BDED7D7C
3EFCD63D
3FA3C012
3FC5CC5C
3F5E9AB3
3E0E6D59
BE9A40D9
BEBC2071
BF5A6ACA
3F96DF9C
BF89E0F0
3D435CE2
BE584C6A
BFA02A3D
3E93400C
3FBBC68F
3E8635E7
3F3E68D3
3F311F2E
3D819008
BE4BEDB7
3ECB97BB
3E8238DA
BFE18E86
BDEFE0CE
3FA4A1CF
3EA4CC8A
BF62C461
BF3B35E3
3FBDF0AA
BF19758E
3EFF34D7
3FBF7881
BFE8962D
BEBD5E07
BF102795
3EF3810F
3F2FB752
3E7D0460
3F33FBCE
3F1686C6
3F49527E
BF8F5AAF
3F8D1CE3
3F1D1740
BFEE26EE
3EBD4E4D
3F779C30
BF9CA561
3F32D82C
3F88785B
3D81943A
3F165892
C01E3D25
BE2C4263
3C41DB01
3FEBAD7D
BF18F00F
3E87B507
40159D8C
3FE1C6C1
3F903676
3FB3877B
BEBF6EE7
3F62321A
3EB1181A
BF40D823
3F4A34B9
BF9C53C1
BDB691A7
BF0D841B
BF62CCC4
BE4FC009
3F96FFEB
3F09EA46
BEDF5643
BE567FD4
3FA290C5
BF25E743
3F9701F3
BF5F866E
3FAB7F95
3FDFDEF8
BF7C99E1
BDEC5E2D
3F2C4546
3F4B7FF1
BFF9E5DA
3E3DE269
BFC1F738
BF345943
3E0CE1C6
BDE0CAE6
3F7157BC
3EC7583A
BF8296E6
3F0A1A61
3F4CD9A5
3F8A3066
BF08944F
3F29F938
3F76DDAD
3F7DAB19
BF814D05
BD96E3F8
BF980BED
3F88E9EE
BF7E0DBB
3EC870FC
3E3785B6
3D12599F
3F0638A8
BF27A4C6
3F3DFC8F
BF744EC6
BF55846F
BFFB103D
BD12E72E
3D9EFA61
BF1A832C
3EFCE22A
3E9405D5
BDFF5F91
3E0836A8
3F88DEB1
3F4852C6
BEC462C3
BEE9B5A6
3D5E7EA6
C0001B54
3EDFC782
3F4111BE
BE99A027
BF28535D
BF7A9164
3FC15C10
BF88453D
3D9D462C
BFDF5BBC
3F9E1345
3FC4280B
BE626AEC
3F91F76A
3ED933E3
3F11E2DF
BF87CDC4
BF823C7D
3F8F2210
3F9B8D50
BF9F5832
3FE9A683
BFC55971
3F4FDBB1
3E80A00A
BFD0876E
BE57E415
BEEC15B1
BEA19F1B
3E0E2047
3F95BF16
3D0215BA
3F37BCA1
BE4D373B
3E119F3C
3DDCE6C1
3F906195
3F5D51F8
3F0284F1
BF0830D3
3EC7D8AE
BF8FB563
BE823465
3EBBD7F5
BEACA0A1
BEF4662C
3D74DAD3
3F01A405
BF55818C
3D28EF78
3FD01240
BF355A18
3E36A7AD
3F7A3BEF
BF4B95A3
3F442624
BF7F4E12
3F8ADB16
3D7C5693
3ED59E41
BE841590
BF46C4C6
3E9CABC5
3F1FE133
BE8C17CA
BDA84E83
BDDFB613
3F883148
BF8F20EA
3EA1DAE0
3EE9CD3E
BF0E2A4E
BED5E0B5
BEE0AE75
3E619E73
3F31C5C5
BEF1EFFA
BF1B7DD8
3E801CD6
C0006C0D
BFF90B18
3FB2B6B7
3F15DE6A
BF902396
3FA42529
BF438F36
3FA34A23
BEE723EE
3F67F0ED
3EAD23F6
BFA6F89C
3E824F01
BF1666DC
3F4ED05F
3F3EA2E4
BEC1615F
3FB33615
3F690721
BF0CC7B0
3FE65BA7
BE84BDBA
4009B6BF
3EE0E5C5
3FB57037
3E67E910
BF44BC5A
BFD8C661
3FDD1383
BF95973E
3F264756
3F24CD96
BEB63066
3F9A0150
3FF9C7E7
BF5985E0
3F5800A8
BEBA6890
3F697C3D
3F97FFDE
BF2D5897
3F91D60F
B93ED741
BF46D00B
3F47D33D
BD99018E
BBE2089E
3FA39296
BE07C393
BF728C8B
3F4A78E2
BF49B20C
BDEFB3B7
BD9F5F91
3F8ADDA5
3FACF987
BF30851B
BF05A587
BFE0FE58
BFE24ED7
BFD6218E
3FB05BF2
BDF8B828
BF46279E
BF75F267
BE44E4C9
BF2C013F
BF2CC77E
BF2E8534
3F324A5A
BFBBB15B
3F88127B
3F96F11B
BDAB2852
BF4829AE
3EBD6CF8
BF434CF5
BE10CCBC
BE9B3AAC
3F52745C
BEFD9FF5
BF598A11
3F96B70B
BF5F0920
3F94EFFE
BFB4DA1B
3FB731F4
3D3CD899
3FBF3C1D
BF178B37
3DAD130E
3F2A0200
BF32831B
BD87B353
3E5131A9
3EFAC6AC
3EC016AD
BF26146A
3E258538
BF570D52
BF50956C
BD743633
BFA73FC8
BEBCDD51
3F1E4346
3F95DF6E
BECDF45E
BFA8F701
BEF6AFAB
BF3D6452
BE2416BE
3F35B941
3EBE5C4F
BEE87D4E
BDECBAF9
BF84998D
BE5482BF
3E6F7729
3CF38822
BBC32A8D
BF597269
3F542689
C00834EC
3F54FDD2
BF671BDF
BE8C71D6
BF3F928E
3F19D430
BE92B0A7
BE38B114
BF460C17
3EF0BBD4
BF5CD270
3F9606D9
BF327CAF
3DBB078E
C0124C7B
3E2187A5
3F6449FD
3E783D79
3E832075
BF1129FE
3F11897A
BF83E9C0
3FD5BBBF
BF13B6BB
BFE391A3
BF0E2BF1
BEC004FB
3F45218A
BF80BD5E
BE225AEE
3F3AA0CB
BF994068
3E976DB9
C0054F33
3FB2C2D7
3F87AE8A
3DDC200C
3F061D32
BF809CAA
C00EDA6E
3F29DB44
BECC43F6
BFD104AB
3E9F0D63
BF88EAC0
BFDC66BA
3F4ABBCB
BFD6A3F9
BE2604E2
3E7BC1F0
3F27457C
BF934C4D
BF0D9D13
BF8DB45F
BDE56712
40528723
BFD52AE0
BFFA348F
3EBE6384
3FF641BC
BF77557A
3F9D170D
BF41E43F
3FC5512F
3F7D52E3
BF2A57A8
3F0843C4
3EE77BC0
3B70520D
3FD9988D
BEF1BE4D
3E7A2CAA
4026FAF4
3F793B08
BFAD91EF
BF472336
3FFD4C77
BEE46562
3F97FC22
BE0DB22D
3F174D16
BF239CB7
3EE3686A
BFA52BD4
BFC24502
BFBAEAF2
BFEFF688
3F53EA3E
3FB2FB01
3D166CF4
BF29C2E3
BF34A97A
BEF193D5
BFA8FB01
BF136FC1
BF04A0D3
3DDEBE9D
3C2975B0
BEB573C9
3F09A390
BFDB7247
BEFEDDAD
BDFEC461
3FE129C3
BD04A622
3E4A53FC
3F674FE8
BF5CDF7A
3E3CF67B
3EC99653
BF93CA2A
BF97C83B
BF9D840A
3E07FDC6
3F8D2E8C
BEEA4F22
BF8A6477
3F8E4AD8
BF537931
BCFD9DBB
BEFE9985
BF159579
BFC78288
BDA1272D
BED00D1B
3FA9382E
3EE79E38
3F84A6FC
3F8BAB7E
3FA2A79C
BF716894
3ECEF86A
BE888D09
3E83EF07
3F23B7FA
BEAB456B
BF139629
3F88BCD8
BF106BF0
BECFAD8E
BFC21B43
3F42FA40
3F6D989E
3D87863C
BF3965E4
BC394962
3FC7F706
3F37E176
BEBDF7E8
BF795DB3
3F6437B5
BD5373B0
BDE89F41
BF9C4D4D
BFB7784F
BF9A1911
BF30CA4F
3DC11CB0
BFBD5EA6
BFA19818
C0011F32
3F4AE45C
BF0FD33D
3FBA6E2B
3F938644
3E5862F6
3FEC828C
40064129
BFA007A3
3F621AB5
BF1FB289
3DB613D3
BFEF8299
3F6DD170
3D856580
3EAA2446
3F890310
3EE1E0E7
3EAC2EDC
BEF265AE
3F2A3A6D
3CE3992D
3F1FFE3B
BF880D91
3F9AC3A8
BF6DFB61
BF5DF2CB
BF597FA6
BF1D3975
3E004535
3FEDCE18
BF91B25F
3F9A8F86
3E1933E3
3FE88E61
BF24AD04
BF228B6E
3E30C283
3F286FBD
BEAF72D6
3E8423D9
3F43C5CE
400FD85A
BF16CA58
BDCE6538
3F153826
3EBB91D5
BFE534E7
BE21ED5B
BFBB1045
BF03139D
BFD63E7D
3ED663A6
BF15FF1E
C01B5853
BFBE2EBA
3F5F1FDE
3E3FD263
3F1EBEBE
3F8F691A
BEB3E35C
3E89E5C1
3BFE1DA8
3FCE1E82
3F653251
BC6CB74E
3E540421
BFA24BA9
BE1DEA03
BF096345
BF232FDC
BFC6CE14
BF859570
3F869E02
3EB796C0
3C99F3C7
3E6F0B28
3F883EA7
3FA49DE9
BEF324C8
40052E5E
BF784B90
3F8ACF53
3F9B0E6F
3EDD58C9
3F2B458D
3FBAD6B2
BF44F68C
3F553006
3EEB60D0
3C93AB43
BE95BC02
BE42220C
3FD89D1F
BFCEF909
3F7C04EA
3FA42563
BF8767F5
BDE4449E
BE70D5E9
3F515369
BF8B5843
3F0181F1
BE72BC30
3F038AF4
3FF01073
BEBF1609
3F91B6F6
3CF7DFA0
BFFB1359
BF14828C
3F16821F
3F8844D0
BDBF583A
3F60E69F
BFA94C7F
3F1EEF3D
BF8C63E9
4005C459
BEAE8DFC
BE8A7935
BEAF4B84
3F603537
3F4A06FB
3EEC51DB
BF55BF05
BFE11362
3E4A86D7
BE6B239A
BFA63904
BF303B82
BE5EE84B
BD24C405
3FA4F662
BF1F3BFB
BE5B28D8
BF91E397
BFA12967
BF1EE7C5
BFD277CD
BF8EA25E
BFB18BBD
3F5DFB2F
3EB25333
3DCA3401
3EAB73D2
3F11A0AE
BEFF1562
BE0BC59C
3F406024
3F602B63
3FDF6955
3E2E7BC4
BFB0CDEA
3F902329
BF996085
3E8C6888
BF9D30B6
BE5764F1
3F11D25B
3FCFCC9F
3F99C8EB
BF73F7AD
3F037729
BC313DFB
BE5188B1
3FA054F8
3F91F291
3FCA7C7C
3F812BED
BFD666C3
BFEED1A6
3F52DAFD
BFDF74EF
C011B4FA
3F62BD4D
3F7FDE1E
BF90F838
BF86F47B
3EC6AA08
BEE2450B
3F0A086C
3FBEB29E
BE7C2C1B
3E8ACC4F
3FC9F4B2
3F0197C4
BF51BFDF
3FC7F4A1
3FD4A59C
3F8EF15E
3E95FD26
3F9BA094
3FA7188F
3E970069
3F3105AF
3F873E79
3F95AEEF
3F7DF677
BEF87400
3F5C866A
BEA6FDEB
3EC9795B
3FB2ED81
3E6F3CB4
3F5D9B4E
BEEA3769
3ED845BB
BF2F71DA
BE276B3C
BECEFFC1
3F17E7E2
BF5745D0
3D6568A5
3F8548E4
3CD90C0B
3F915D2D
BE62DB1F
BE809CE5
C00FD1D9
BF0FA094
BF28E076
4014EADD
3FC8556D
BE1C0BDD
BF9A6E5D
3F3AAC32
3F025094
3EBEB54E
3D0A57A8
BFD972E7
BFA99852
3FBED584
3E1B762E
BF5995EE
40024B4D
3DF29CBB
BF5FEE0B
BD932BDC
BF95A1BA
3F56EBC4
BFCE5586
BF210BC8
BF840315
3F608ACE
3EBCFA8B
3EBE989A
BE84521E
3FAE5027
BF26A92E
3EB26FE7
3E7DF655
BECC98E5
BF613283
C013BBB2
BC5512EC
BE0E0A85
BF4AF9DB
3D2C5F39
BC39389B
3F2996A7
BEF5FF82
BF056F00
3ED61B2A
C00B7061
BF7D9978
3F22C52A
3F92E286
BD9CF462
3FB8A0C3
3F2DE8A3
3EE1E7B8
BF8C42A6
3F3AC7DA
3EEF29B3
3F6CB210
BEAD7386
BFAC2ED3
BF7412F1
3F5E615B
3F173205
BE745133
3FB0C00E
BF9C3A64
3F1635F8
3FD1015C
3EF0B86B
3FCF0425
3FA9C86D
3F9DD3BB
BFFD5C5B
BF5DD8F9
BEF34BF9
C0029A56
BF70FC0D
4002671B
BEF585E0
3FAAEED9
3EC5D1E5
BF156C72
BFFE96FF
3E3DB489
BFFCCF74
BEFB178B
40005860
3FC2C6A4
BF3BF1FA
BF2EDAEC
BDDFB3FA
3FDA4085
BF24997C
BEE59557
3E86004B
BF668449
BF411090
BE2F81A6
3F588701
C0085BAB
3F189907
3F7A7C18
BE3675DE
3F15F666
BF29333C
BEDDB835
BF3CE22A
3D76F6D7
3FD81B86
3F248605
3E276D98
BF0C3D9B
BF8D9C39
BEA321A3
3E3BFA4C
BEF4EC20
BDC5CCC9
BE852956
3F532D80
BF04767D
400ABD94
3EA2BABF
3F88CB53
3FA00EE9
BF852E27
BE3AC96D
BF65B37D
3ECECA47
3F4F6EE7
C0133501
3FACCAC5
3F2033A4
3F96F417
3F70486B
3F87C3B5
3F964BBA
BE37F3CF
BFAC2539
3F399664
3F615897
BF60300A
3FABC67E
C0028D09
BFB0C2F8
BD24FEBD
3F633301
3FCEB80F
3F9F043E
BF9D845E
3F80F039
BE5B8AE3
3F6E5248
3E345309
3E931A2A
BFB0AA54
4004507A
BF0619CA
3E670004
BF3EE504
3F9B04B4
BFD932BE
BF4D0FE9
BEB9DEAD
3E9D49B6
3EC797EE
3FC00685
BE3CEBFF
BF57E2C5
BEAE2047
3E341D4B
3ED593E6
3ED6D6DC
3F3826BB
3E60E0A8
BEED2828
BDF7891E
3F9D6E05
BF6E6B72
3E51172F
BD6B0319
BF7FFB9C
BF995FAB
BF09D723
3ED2F9A9
3DCAA4BA
BFD828DD
3E91F773
3E46772D
BFAB60D9
BEFF3344
C00E70C1
BE59C800
BF8CF7F5
3E90D2A2
BF59EB64
3F9F2EF1
3D9DD3BB
BF02FF5C
BEE6B7CC
3ECF310A
BF346024
BFC4833C
BF681E36
BE921533
3F1A70E3
3F67A12B
3D8A6656
3F287864
BEE92F90
BE010668
BFA178EE
3EA4406C
3D055971
BD0D24E1
BEA05DD9
BED462E5
3DF4A01B
BFBC3487
40026F48
BFB4100E
3EB0E51D
3FB35BBC
BF749E13
BDF71540
3F281909
3EEF2D80
3FDC1DDA
3F64BC5A
BF8A82C7
BE98BF7F
3F4D4574
BE75E1C1
3E8A87C2
3E9BE708
3F66CDC0
BF83C287
3EBE6BE8
3E9B2010
BED8DB49
BE67531E
4006A7A0
3FA01F32
3F37B539
BDEF2C73
BF1099AF
3E89BB49
BF379778
BEDD7109
BE397529
4016F102
BEB2C8C5
BE22CE03
3F237EA2
BF9663AE
3ECCB103
BF72B96F
BEC5F58C
3F08B05B
3E67B678
3F0CC5B9
3F827193
3F34C6E7
3FD38A1A
BFA0362A
BEAAD256
3ECFEB29
BE857B42
BF5BA9D2
BEC08A69
BFBA1850
BCE6362A
BF7A2899
BFAB8FCD
BEF0DBAD
BF2D3DC9
BF3EF8F0
3F0E642C
3FF4A8D2
3FBC0254
BFDC2281
BF181052
BF89122B
BFDFFF0D
BF2C6317
BD47CD8A
3E5CA3A5
BF64E78A
3F42BB99
BEE66D7A
BE1FB656
BFE28E71
3E8F6816
BFC7CF92
3F90FA48
3EC1AE4F
3F90F451
3F8653C1
3F571A5D
BF39FA12
BEE085B2
3FABC86D
BD6CCD53
BF20EBDD
3E9E61D0
BF25F794
3E4830E4
3F43191E
BFB05C5F
3E5F351A
3F2C0DC3
BF87190D
BECE3A19
BEBC3B4F
BF43DBC2
BF4A702A
3EA74D7B
3DF0E7FF
3DD32160
BE9EED03
BF78CE4F
BE4CD4AA
4037966C
3F58C63F
BFDB84C2
3E0C2B95
BE692D99
3FB24A9D
BF1F939A
BEB4CCEE
BF394AC3
3E0C8C50
3F3CCC14
3F79F139
BF378690
BCD06FEF
BF131B69
BEFBEAB3
3F3426DD
BD63C105
BD437D63
3F101CF8
BFEEBD55
3FF022AB
BE98CFE1
3C6C3DAB
BEF9E450
3FA3E282
BF616ECE
BF3C1659
BF32C893
3ED62BAE
3FBE4031
BEAAB5A2
BFB14A90
C00AA1EC
4003E44B
3E57481B
BFBC8B09
3FAE342B
3F2F53C5
BF41E4B4
BFE97532
BFA7B7BF
BF2804B8
3DA281BA
BFAC13A9
BF1BBAFE
BE60EF56
BE16F588
BFC76588
BFAF0CB3
BFEE5721
3FD1A134
BF13CB81
3D0D24E1
3E7ABFBA
3EC5A87A
3F30F430
C0046816
3EC90471
BEC48798
BDBBCA10
3E9DD6E0
3EF2EC07
BFA36534
BF2A3B69
BEBF789A
3F55E55C
BF50A15A
3EEC02F3
3E6CFBFC
3FB213EC
3F9D7F73
BFC0BEF9
3E1EDCC2
3E28650E
BE3A233A
BF313187
400063BF
BF5FE143
3F54EFAA
3FD6D0EE
BFC22752
3E038866
3EB3AC71
BEE72346
3E3C41DD
403D4FB5
3E94BEE8
BF41D799
3E745F9E
3E434374
BFAC584F
BF998BBD
3F81420B
3EF9233E
BEB991BC
3FB5768A
3F210F0F
C0147CEE
3E360FA1
3F19F352
3F0C0C63
3E6805E6
3EFD3501
3D863172
BF60FA7B
3E22F61F
3E483E42
3FAAFBFC
BED613B2
BE2DEBD9
BFD31401
3F1E84E0
BE0E529C
BF2F1290
3EFE7BA2
3DA60C39
BF02F805
BF915433
3F5D4DE8
BF71FE33
3F5A5E78
3F0F8562
BE0BDCAD
40086EA4
BED93FF2
BE8A20DE
3DC13B9F
C0010596
BEB7E804
BF6C36B9
4002640A
BFA1651B
C02DC39C
3FEF4B38
3EADC8B8
400E64E0
BEA6C333
3F3CEB57
3F924E94
BFB138F8
3E060FA1
BFF48BA0
3F42C797
BCD336DF
BEF164C7
BF1478C8
3F12A1A5
3F40448D
3EA59EA5
3F1F1AC1
BF44C587
3F7231F9
3E8B16E3
BF9716A9
3D0BB7FA
BF8FA6BD
3E184902
BF55FCC2
3EAB12F5
BFC83B4F
BF932096
BF4BCE85
3E7C5CDD
3F089C1B
BFF41DF3
3EDDFA22
BE506749
3F268FD2
BF5555B4
BF746BDF
3F4156B0
BEAA5B10
BF848790
3F643CD1
BF4402D1
3FCA1D43
BDE1CC53
3F8C5A81
3FB1437C
BF00A0B2
40001451
4013FD05
BF2A3DF7
3FB85F42
BF057D8D
3FA52086
BF966BF8
BE86837F
BFB90CF6
3E788228
3FD8CD18
3FCF0803
BF96DCBA
BF2079D5
3EB67FF6
3E80403A
BF5A3B47
BF340FDC
BFA1B17D
3EC5D313
4007CC1D
BF2D31A9
BF9BD6B6
3E5BC2FC
BF5C5B3A
BFADED5B
3FC1058E
3F66A759
3F98CC57
BE4F5CAF
3F6F4C0A
3F3EDC1A
BE0B25B3
3F674ACB
BF82F249
BD9DC6A0
BE628177
BE3A87E4
BFCEDCBA
3F2967DC
BF8FCA08
3EFBE187
3F0314A9
3EDEE265
BDBB6912
BFBC018A
3F04F9E4
3E40F388
3E6EB91B
BFBD77B8
3D9CA750
40262D4D
BF3EB9F5
3E620210
3EA3EFF2
3EC2C0C6
401C7D1C
3F2BC793
BF1F7111
BF7BC298
BF560CE1
BF54520D
3EEBB55B
3E0EF88C
BE169E3D
3F4F1983
BF837A46
C017CDE2
3D5CB35F
BEE75537
BE3B228E
BF0C72F3
BF1DB3E1
BE427F1B
4013FF0D
3EA9806F
BF73B118
3F3AA865
BF53EFD0
3EDE9E3D
3FE94D0E
3EE9984A
BF0164C7
3EEC2FE8
3FCB60B7
3E4ABFBA
BE84CE3E
3EFE3CFB
3CB923A3
BF5EFF5C
BFCC2132
BE3E7C8D
3F2405C4
4016B253
BFA85543
BF822667
BF2E6F50
3EC3BCD3
BF292370
BEDA9CBB
BE6A7F3D
BDA3F466
BF202BB6
BE5648C7
3FA43AB0
BFA041FF
BFA6223E
3F6C639D
BF1B8EE3
BEF6F933
BF59DE8B
BFE60AF2
BDC88DF3
3FE15E20
40082FCB
BFCFD52C
BF0C4791
3F9024BC
BF9B52CA
3E280D3D
BE81D841
3F1D8106
BF435DFF
C01BB36C
BEAC71F8
3F08E608
BF9544BB
3F111783
401D503C
3F4F3040
3F499A95
BF122196
BFE6F859
BF39E11A
3FBBB80B
BF8F1DD6
3EA444BF
3FF7F91E
3F8293C0
3F62BF34
3EC288AD
3DA5ED4A
3F714403
BF0C80A6
BE2ED5F1
BE8FA58F
3FF0259E
3F1CD3E1
BF5C7AF2
BEDED677
BFDF0692
C01E0232
BED4A5BE
BE6984A1
3F434624
3F036C05
BF423B9B
BF08B4C0
3EFAA2E4
BF228B7E
40082DD8
BF6E84AD
3FE0831B
3E08AD25
3FC356C1
3F2FDB1A
BF42A1B6
3F53A2E0
BEB08C3F
3E7215FD
3F5328B7
BEBE2CBA
BFCAA24D
BFC58223
BE0DDDB1
3F163411
3F445DFB
BEA5783E
3F88F3BA
3F4E8295
3F108EBD
BFBFD641
BF6F0CFE
3F9FBB73
BEC17204
BF9B898B
3DF3E1CA
C01E6E37
BED5EDD0
BEFE338B
3FB7442C
3F8D55AC
3FA3191E
3F5D84B2
3EF5CF68
BD918091
BE874FD7
BF1482F1
3E73C5BD
C0247AE1
BEDF0953
BFB91DB4
3EF54307
400EEA8E
3F311A97
BF8884E0
BE90ECB7
BF312E41
BEB0982D
BF851ED1
3E1B93CD
BDE1C3F0
BF6D08A2
3DC51117
BF4001B4
BF65F97B
BD8F66A5
3ECDCC85
3E88815E
3D74CB19
3F51491F
BF83AF86
BE9A641B
BF5F4ECA
BF52EEE9
BF5A4053
BF84A433
3F2A7D03
3F72A93F
BF6CF26B
BF9641A2
3F19233E
3EFC27E9
3F213166
3F28D90E
3EBE77D5
BF5CF81F
BEEF79EA
3FBEBCA5
BF7D2E62
3FEEB6D0
3DEE5711
C00B3094
BEBA7807
3F6C6D83
3F22F0E1
BE8BC105
BFBA8883
3E6925FF
BEF1EDC0
BF81150E
BFA29396
3DC53198
BEDE6FB5
40169BD8
3F02F007
BFD9C4B9
3EC2643D
3FF17471
BF71E1E3
BD96A1E8
3FD17C5F
3F8C51A8
3F9A8B7E
3EC25DF2
3F7E27F2
BE0D3C36
BF648CC5
BFB0E4FC
BDBDEBD9
BFF01D86
3FE92431
BE7A7EB7
BF9D26E1
3F35AEB4
BF6C6FCE
3F6AE9EE
BF1C9731
BF3C7571
BDAEE30D
BE7094E6
BEB65D7D
3F1A49B2
BFB4929B
BFEE3BE6
BFAAE7EF
BEB38A5D
BCBE8145
BC8DE093
3FF5B539
3E3213E4
3EC44B90
BECCD489
3F9E7158
BE9F8034
3F94749F
BEB3FF47
BF005836
3E374CD3
4014D90A
3F8B7708
3F4AE536
3EC61C9B
BFCEB0D1
BE11ED5B
3EBEFE72
3EC8D478
3D11F4F5
BECC9796
BF303809
BFEAFC48
BF8985A5
BF14306E
BEEC3B4F
3EFDC209
3FE9F39D
BECB7FBF
3FE2F178
3EE7598A
BE97B2CC
3D0069E8
3EC4A0A1
BFA322FB
3F3588E3
BF4C41AB
3FDF64AE
BFC1C372
BFE1DBA1
3F522AD4
BF9AE369
3F0445FE
3DB13BE2
3F7E6E54
BE8635A4
BF2AA0EC
3FE2BE8C
C002969A
BFBE391D
3EAE742A
BE51D3AA
3F850DD8
3FB8F4BF
BEC1B08A
3E8A8AC6
BE8C51FC
3E553198
3EA2C344
3F8BFEEB
BF11F4F5
3F4A7C9E
BEEEFB09
BF4CA7A4
3F46527A
3EC13533
3F62C55D
3DC4BA0F
BF28B5AA
3F27AF53
3E545C36
4029E6F7
3F8ABDF5
BFEC312F
BFB246E1
4040A92A
3E626E98
BFC986A1
3F56A5A4
3F0F8855
BE7F5233
BFA38855
BF5DABD2
BFA567EC
BF81715C
BDA33483
BF9AA6B1
BF319514
3EA4FA8B
3EE7021D
BF297109
BF215E29
BE1F1E8E
3F41F0D4
BDAF2841
3F57C73F
BF0E1230
BEFAA800
3F422F38
3F124DB1
3F368BF4
3BCA70D2
BE8676C9
3EE177EA
BF605027
3F41667B
BF0EC28B
BF78E2D2
3F44578E
BE7E8790
BEC7FD82
C001A030
3FA05543
BE41044F
BF59C62A
3FEE4BFD
C0127FE1
3FB88366
BEA064CB
3F57739F
BF473EBC
3E67BC3C
3F788A7A
BC05DB77
BFF4B4A6
3F59C098
3F7EC5F4
BFF9929F
BF614035
3EDEA1A5
3F85565C
3F8A8DE3
3F5CECD9
BF808A7A
3FABB56C
BFAF312B
3F8E7393
BFBF8801
BF97F0CC
3F343E75
3F0C21F3
BF3F267C
3D2ECAEF
BFBBB531
BF40CDB8
BFBB2652
BE5FADF3
3E99E8E6
3DBF9379
3FCCADCD
BF837B5B
C06C38FC
4051FD05
BCE5BC88
3F25641F
3F1EC58F
3D177964
3F90C198
3FCC1E47
BF7F38D6
BF059286
3FB1D1CC
3DC7F66F
3F15F698
3F7A59C0
3FB67781
3F83FA09
3DE008EA
BFD35782
3F19244A
3FA204B8
C01DBBE4
3EC0A633
3E9A6352
BE65896A
3FDA9A70
3E73E74B
BF08A8F4
3F69DDC2
BE9C022A
BFD06128
3F1D00A4
BFB98950
3EB85016
BD0E0115
3F7F76A3
3E5D20F3
402B9F0E
3F413911
BF040DD4
C0164D5E
3FE12B91
3D5099E1
3EDBD2B7
3F890670
BEBD68C7
BED284E0
BE6A0E41
BF44F6F1
3DAA7B4E
3F15B079
3F9FF92F
BBF26AEC
BFFC5BE2
3E940571
3F461661
BEB10907
400CC7B4
3F2BA97E
BE6FAACE
3D842742
3F3FA54C
BEDC384C
3FAA7D1C
BE94A87E
BFAABE62
BD8DF506
3DF2495E
BEA2543F
BFBF5105
3F14EFDD
BF02DA01
40187CB7
BE936199
3F0B8551
BFD6EC10
3FF6A1E0
3E064A17
3F47CFE6
3F329F38
BF408E58
BFD7F4AA
3EBE236C
BF2C00DA
3F4AC0A5
BF0EF5FD
400F3A36
BF71DB55
BF42BABF
BF67C244
3FD0B85A
BECE1177
BE257321
BFC97458
3DFC0EBF
3F3F9BAA
3E151A00
3F6BA909
BD4B3F64
BDF29FE0
BDEDD50B
3F0FA42F
BF1FF994
3FF1B899
BF9195BC
3DCCAFF7
3F2CAB93
C010A344
3F5BE2E7
4004D2FA
C0280C6F
BF874D62
BF4876B0
3E32E558
3FB7A9DA
3EA26F3F
3E3965F5
3F9D78E6
3F1629A6
3F95A52B
BF519C39
3EB1DA7B
BF04E1C6
BFE9D652
BECD9168
BF6A490A
3D9F5621
BF987150
3D96DA01
BF579B24
3F13FA8F
BFD4C597
BF256313
3F6D186E
3F10BC6A
3F8813E4
3EB0D2C4
3DFAEEE9
BF0234EC
3E2862F6
BDA19221
3E729308
3F7EBC62
BFC17479
3E65B4EE
BF34EAE2
3E85B142
BF9FF5E8
40022AC7
BF142A67
3EE17FC7
BF2BCD8A
3F00CF18
BF75B6E5
BEFC4695
3E856777
3FAE9510
BE64AC2A
BFC09425
3F1C4E62
BF138940
BEF58E22
C00A7FB2
3F3E83F5
BFA89B84
C02998C4
3EA613F5
3F2027E9
BE85BCCB
3F5F22AF
BED3D295
BF420547
3FAAF00F
3F788A05
BEE98549
3F67327B
BD1DCC64
3FDD9EA5
3D921251
BE9B736D
3F336189
BEDBE404
BED591EF
3F9808B7
BF81838C
BF0792B0
3BFD0071
BDA5EF63
BF6252AC
BE6AD57C
BED70996
BE9BADC1
3EC240D9
BDF78FEF
BE57EC35
BF1B9086
BEE0F323
402772DE
BE572863
BF3FCD36
3FD0830A
BF0306E6
3F7BA6F0
BEF2033E
BF2362E9
BED8BF3C
3E1A7BD5
BECA1D32
BF6A4841
3EDE390D
BFF4FE72
BF90F430
BE891277
3F4BBA45
BF85E397
BFED5E9E
3E536A40
BE453A82
3E1D6E8B
3F385261
BF1EBD5E
BF4E8D43
BFCBA9A8
3FCFEAAB
BF1021AF
BF9C3F03
3F21C68F
3EDF1A5D
3F58E93E
BF351BF8
BF2ADA45
3E574A77
BE81ECB3
3E3C7EAE
BFB7BA91
BE9E5EAB
3E90F0E9
3F1686B6
BD9AD4B2
BF1B192F
3E02B303
BF122B39
BDD220FF
BFE00D13
3F5C00EB
C000F5ED
3F41059F
3F1E2824
3FE0BAE9
BD3D2631
BF6998AF
BED4F28C
BF440B46
BF6B7A2D
BFB7C819
BCBADE22
BDF45B6C
3E32031D
BF8A0F13
BF23C3E7
3F863098
BC2A7158
BE909BB7
BD8368F1
BF24C943
BE348E47
3E46E3B4
3E016B12
3F3D3272
3E361848
BE8AD3A6
3FB7E7B0
BFAC30EC
3E34712E
3DCE0653
BF6AA844
3F5B0931
BE11361E
3E799F5E
BE8F0E6F
BE0B1B37
3FA12CD8
3F3F0889
BFD7CF0B
3D890D5A
BF26908A
BF926FC6
BED9AFC0
3DCCD5B7
BE7ED070
40074192
3EEF8466
BF230575
3EFB95E6
BDC5DF22
3FAEDA98
BF12C83F
BF09971C
3EABC1AD
BEE3630B
4017A8B9
3E7E846A
BF45A75D
BFB95FE5
3F176406
3E7A16A5
BF22CCC4
BFC1E868
3F518245
BF15C9B4
C01186FD
3F5C488C
3F72B40F
3F95116B
3F6048F1
3E586F05
BF25CD4F
3ED6275B
3FC07A9E
3D99E7B8
BFFFB446
3FDF9980
3ED3BC90
BED0F1F5
3F7A41B3
BF6719C6
3DC8D196
BF29DA49
3D713F07
3F91060C
3F6F9789
3F46EAC8
3C3A8C58
3D982129
3FB49004
BE105469
BF003361
4010FC05
3EEE72DA
3E4C66D3
BECB7260
404A1527
BEF6F694
BF03A711
3F11729B
BD9681ED
3F195810
BF5B329C
3F0B47FA
3EFFB0D5
3ED26D8B
3F266BD7
BF8CCAAC
3F7192C9
BF8B79A7
BF722B28
BF2EC083
3EFD07C8
BF52BA06
BF6A0EFA
3F8525CC
BF82171A
BEF9F44D
3F42658C
BF176406
BFE94CA1
3E7141EA
3F9962A6
3DE0125A
3FC6AEFB
BFF19913
BFC9C548
BF40A0E4
BE39934F
3F00DEB1
3F98D4F6
BF939032
3F596463
3DC4F872
BF17440B
BFB4BCA5
3F97BA56
3E9D590C
3FE2C16E
BDDC4C9D
BF38A362
3EF9BB49
3FDDCB4F
BBF62F9D
3E1255B0
BF9BE625
400AF5C3
3EA829F1
3F73382E
BF3D8C5D
3FD65D8D
3F956028
BEA30468
3F30C2A4
3F09B4EE
BF7D5BEE
BFBDC7BD
BD29930C
3E25F916
BED6C0F9
BFE01CA4
BF34022A
BEE92DDC
3EEE7147
3DFD4F9C
3DE55087
BF18D003
3F8E6959
BF03E176
BF3DA6C6
3F28204F
BF311612
3F4A9DF9
3F9B550D
4001DE7F
BF59208E
BFE5735C
BF734DCF
BFDCEE74
BFD7BC66
BED7FB26
3FD7FB59
3EA6A0FD
BF138013
BFB7495A
3FADD49D
BE06E7E6
4015EF85
BF28AEB8
BF70A2FD
BE93A0E8
BFD951A4
3F553E60
BE9D94AF
3F6926D9
3FC55F3D
BFD38C76
3E6CB89D
3E5006D1
3F257DD0
3EAA22B4
BE2886E0
BF330889
BF1A9E80
3F529F9D
BE97353B
C044BCC3
BF489CF5
3F895EEA
3D7AC4F8
3D7C9364
BE9BCF2D
BF8547AE
BE93F61B
BF439D0A
3F2016AD
BEE338B4
BF96D6D4
BF13B1D1
3E9AFCAD
3F99C619
3F31D51B
3CF86E3B
BFD65C4F
BF774B40
BF655C74
BE63DD55
BFEE7ED0
3B8CCDD9
BF69DA49
3F97FD59
BCFEBAF1
3E93D380
3F922EB2
BF32785B
3F9F063E
BFCAED57
3EEE948A
BF26F5A9
BF0FF6B2
BFDAC1A0
BFC34E33
BF8B479D
3FC60160
BEE9C843
3E2048E0
3F859AAE
BFD44ECF
BE039043
BEE10668
3ED55E8D
3F37DAC7
3EE3B949
3A7CB4F2
3E4DDFCA
3ED4AA54
3F9C4239
3F71B7D0
3F9532F8
BECB2379
BF863D36
3FBCC58F
BE30A783
BDF0507A
3F94CB8E
3F665215
BDB4FDF4
BF1E47ED
C01AFCF8
3F555DF6
3F94C932
BF03F584
BE6A9F7B
C01A51F8
BF695E5B
3FD051B9
3FA6FE15
BDE7429A
3E05946C
3D65ACCD
BF9ED3BF
3FD663B7
C0167ACC
3F8F22C9
3F8725CC
BF263E4B
BE181FDA
BF397ECC
3EFEBB99
3F72D9E0
3EF3FC87
3EB2F512
C003E322
3FF3B2AB
3F08626F
3F22B1C4
3E6961C3
3F4837D6
3F172A5A
BDE192A7
3EEB6B6E
BE8982CB
BE30C73B
3F4B5DBC
BD97A80D
3EBCF69D
3EA2C109
3F930B41
BEC1FBA4
3FC6A2EC
C004BFA1
BD1015C2
3F616FFC
BEFFF2C3
BF9F5C21
BD8D5843
3F87B585
3E5D8490
3F3742DD
3EC2FF8F
3F654584
3F68B828
BF9BFB1E
BEE4BC6A
C0280AAF
3F7392C0
3D50C1B9
3EB9C715
BE4F75DA
BF28A212
3FB02C2C
BEDFADF3
BFB66905
BF849386
BFB8E747
3F6A5F74
BF9D3682
BF54B839
BECF49AE
BF8EB9B2
3F2F3AEF
BF8710E4
4000F202
3C215981
3F1D1948
3F9425EA
3FAEBFC2
3DB34E77
3FD1A6F8
3F150FE9
3F30126A
400C7DE9
3F8F37C1
3FA69C3D
BFB0EF4E
3F26AB15
BEF45693
BFED85B6
3EF36D22
BE6C0592
BF441E69
BFA0BEF9
BF77CF5F
BF0CA644
BED335B1
3FBEBEC6
BF9B4A0A
3F3686E8
3F402310
BFE1E3C1
3EDCF69D
BE3DF549
3F37BB62
3E71A869
BFBEFD4C
3E324702
3F6C3793
3EA2278D
BFA64D23
3E723465
BF9E4F33
BC95D4E9
3FC98822
3F1A2C45
BF7E7979
3ED2D6AA
3E427F5F
BFE2CD5B
BF17A3FD
3F192546
BF2D5B9A
3FB2EC39
BFCEC155
3F51BA3D
3E25B91F
3FE96085
BC81D3AA
BE49AD43
BE9126A6
3F4F56B8
BF8D4813
3F064AE0
BF94B6E9
BECCE465
BF6396E1
BE8E687F
3EE821D1
BF7CE38A
BF902678
BE1B0AB3
3E3D2392
BE00ED81
3F65CDB3
BF3206A7
3FFE9CB2
3F03E814
3F154F37
BEA2F6E8
3DAE38A8
BF9310D4
BE542635
40081A5D
BE31F927
BF38D1B7
BDF1372A
C044FF2A
BD7FA6DF
BFB4CC25
3F0A26C4
BF7C06D1
3EB79B13
3F248E69
BE2910C3
3F1E9878
3E82A151
3FCB5DD5
3F303409
BFCF1F1D
BF9CE07E
3FC62281
BE9E948A
BF5FEE91
3F37582A
3E018BD6
3E8861A6
3F43DB5E
3EF6FC9C
BEB7A4A5
3E4A161E
BF9E4DBA
3E5CE5B4
BE41D474
40075A68
3F310AEE
BEC8168B
BEA3341E
BFF9B470
BF868CAC
3FDB4A12
BFE15AAF
BEF0FDA0
3F0CD61B
3FB52AB7
BD9CD467
3FC93051
400809F2
3DF5946C
BF1ECBC9
BF5BF62B
3F830F39
3EB01B00
BF1B9CC7
3E29528F
3FFBC0B1
BF2958DA
BF57605B
BF4B14BA
3F172160
3812CCF7
C01BAF10
BF3BFA8F
BD4625EA
BE4B69DB
BF9614BE
3DEAAE29
BFD32C95
3E322A2C
3E3023A7
BE009D8C
4001665A
3FA3CADA
3F7B81F9
BF0A4C94
BE3D7B20
BF9D8AA0
BD9FE7E2
BF809774
BF1F5DCC
3FA19FDC
BFC42DC7
3EADA4F0
BE6B1F25
BF577250
3CD1DABE
3F0CBAB6
3A5C3372
3F8A306E
BFB87C42
BFB05E1C
BF4F2A49
BFB2A8D2
BF561651
3DE820E6
3E0455EB
3F713997
C0027354
3F17D87B
3F12746D
BE372ABF
3F90480F
BFB8DDD7
BFEB92EA
BFC6671F
C01BEC96
C04DBD45
3FE64F09
BF816684
40000397
3F129542
3FC8B3E5
BFBBDBEC
BF8D6F6D
3E114A4D
BF01CC85
3EB60A63
BCEA1E82
BFA1A438
3EB1BC12
3EBB53D6
3F0D6830
BE807F45
BE9E72DA
3F79FBD7
3E9B60D0
3FA5C369
BF909EED
3F230B5B
BEB6E3D6
BE5D6E05
BF0EF188
BDF46801
3ED7138C
3EF8C112
BE9BF141
3FA2E71D
3EF1A049
BF34C869
3F70A633
3F04C415
3F4D3C8A
BFB7DC8C
3EAC2E34
3F286E1A
BF7407CC
BFCC8AC6
BF9E411C
BFBC5DEA
3F12A769
3FAE84F1
3F7FA472
BD9425F2
3F2BC819
3F5CBD55
BF471F58
BFDF7C1C
BFB75DFF
3F011394
3EAC2635
BF85EE3D
3FC2311F
BE3BDA0E
BF3B327B
BE8985CF
BE481E47
3F47DFC2
3E0A05DE
BE93354C
3F4314FD
3D540358
3E40A633
BEB1EF95
BF9BBD62
3F6693D1
BF8D9E95
BFB655B0
3F766CE3
3E442D49
C001B595
3E44C448
BEB1F59D
C0106AD7
BFF64E38
3F05DC1E
BF6A9DC7
BD31DC51
BFA90ED4
4012C040
401885EC
C028FFC9
3EC61EF7
3F01DDD3
3F64284E
BF195358
3E22DF93
3E80A633
BF90CC0C
4013AC8A
BF8F776C
3D8D0B31
BDE05FF2
3EA3A062
BE9910A1
3F5DCFAB
BED9F83C
BF8FE660
BF8815B1
BF6FF749
3F7A7B91
3F703C08
BF8B0FD8
C0013C97
3F83ADEB
400D8A44
BDBA365D
3E38F1D4
3E9DE93A
BF54AD69
3F41B0FF
3F49ADB8
BEFD60C8
BF56277C
BFC113C7
BFD59618
BDAE5F74
BFAD4D05
3EF5C0BA
403D01A3
BF8BA882
3F7CCEF6
BFC55033
3FA4026D
40296E50
3F5D9008
BFB00D35
BE862047
3FB3BB7B
3E0A38B9
BDE92F6F
BE4BB342
BE8EBA6B
BF337681
3FF4E9BC
BE822A4E
3F2876C0
3F5B7564
3F064B12
3F1D1F82
BE3EC80C
3E621102
BF6D5411
BF461523
3FDDDDE3
3E27DFA0
3FA5CA6D
3E841D08
BE3F36AC
3F533BDA
BDDE260B
3FA543D0
3F27AC60
C00ADEA0
3F7C5AF7
BE9D1F1D
BE27FD3F
BE54A59C
BF8FB070
BDB545C8
BFB47211
3FA2366D
3FBD197A
BF63FE7E
40123F10
3FE55CE2
BFE4F10B
3FB9A893
3F40FB22
BF93C001
BFBB526E
BE5177A7
BF01BC23
3EA95897
BF1DDDE3
BE369A91
BEE6FE0D
3FBC8DCA
3D91D92B
BE9DDC62
BF70E53F
BED10BA6
3F1EAAE3
3EA09A24
BE8F46CC
3F34CF07
3ECC1850
BF0F760C
BED91AB9
BFAFEC92
BEE7F3AE
3DE87097
3FB8EC8D
3F9C713F
4008354C
3F4556F3
3FE7A96D
3FE794AF
BF07BC4D
3EC1A693
3F65CC42
3DBBB385
BDF73A79
BEBC7347
BF506E8F
3F0FE89B
BFC60160
BF375CC0
3F4B2420
BF6017FC
3F8C1388
BFE47222
BF2FBEBA
3F4813CB
BEF382C3
BE29DE48
3FB9BB41
3E11797D
BFCC7571
BF8C37DF
BE968F2A
3F30A97A
3F0FDB4D
3F42BCE8
3E670931
3FAC66BA
3F611F60
3F707831
BF83628D
3F876063
3FB8B54E
BDF37F39
BF79729B
3EB519BD
3EA47347
BF148DF3
3F16425B
BEA5B467
3B8C2E77
3FEA4B02
3F6B293D
3E866A55
3F40D174
3EABE7F3
3E8BBCB2
BFA9A06A
BF535287
3F802129
C005138C
3D9EC99F
BE664AE0
3F98812C
3DE069E8
3F55D096
BCD2EF91
BF9F6FCA
BF73496B
3EB0F25A
BED7312B
3F438D3F
3FABCA7D
BC2E8188
BF884C6A
3F033F42
3DBE5C0C
3F051234
BE0AA0CB
3EB9DB66
BF98E222
3F96CD6C
3F427558
BF4B3E79
3F6525DD
3EB39E6B
BF22C908
400C52FC
3F4D6723
BF03FF47
3FB9DAF9
40033105
3FC8A698
BD92D2BB
BED2E85C
BEBBB7B7
3F5DAA2E
BDFFA765
3EB11A76
3F5C563F
BF7CCFE1
3FBD40CC
3E255193
BEEC5847
3E9D8BE7
3FA66823
3DC5668C
BF70EAAF
BFDD294E
3EDF4B1F
3EF8E347
4022DB01
3F01EADD
BFB7290B
3ED8192A
3DB7E34C
BE9D8751
BB64FB98
3F3DE4D6
BF057907
3F09B5A6
BEF5249E
BFB947E9
3F0B4D49
3FEC6EF4
BEF47B67
BE8ABFFD
BEE35697
BCA4C405
3ED8BAE9
BEF520B0
3F2EA62B
3F7187C6
3F7B7803
3FB13EA3
3EFB775C
BEAB5F81
3F38373F
3E8285A9
C005BACF
BEFC0A6C
BFA7B0F7
3F1296C4
BEB08073
BF9F0985
3EBBF0DC
3F269B17
3E901F54
BE9BA190
BF2C1D2A
3F854541
3F5B59BC
3E9DFBF8
3CCD0785
BE7B2420
BF86D6ED
3E31804E
BC007FED
3ED5B424
BE9AFE1E
BECF0479
BF7F3D5C
3D70A3D7
BEC4A4D3
BD14E4C9
BEE984C2
3F56C81D
3F3ACE14
BFD39D45
3F158B1E
3F3529FE
BFA02CB2
BF919CB7
3EB16031
BDFE5EAB
3E698BF8
BEAC4AE8
3F28E098
BF93B574
3F4E6AEC
BEE15FCC
3EE0FFB9
3E7C7B46
3FA5E9F2
3F135382
3E697AAB
BF03BB1F
3F11CA8E
BC367C28
BED0433D
BFF05E57
BEC7E0F0
BD0EE393
BFB38B8B
BEA57CD4
3F811C11
BDE9B307
BEEDEE13
BF825636
BF6D1AFC
BD4CFE15
3E192C06
BF1DE215
3F6DC444
3EC98EFC
3FCD67E4
BF84848C
BF1F778E
BD193C47
3E9C8840
BEA87BBB
BF003A75
BD15B899
BFFF4888
C028D39E
3F8BC548
BE62EAD9
BF40A1BE
BFA00CA6
3F952570
3EDB59DE
3EA31359
BFC057A8
BF7E6F2F
3F726A23
BE7CADDE
3F28281C
BD99AA61
BF0A7CD0
BF620FA1
3F8C1DD2
BF3DBF8C
3C39AE0C
BF7E5D3A
3E5DA3C2
3E087592
3FB7CF89
BF6EF1CC
3F55FADB
BEE6BE16
BF274752
BF27CE53
403335FC
3F4B4928
3DC7381D
BFA7E64F
BE631056
BF8CC5C1
BEB3E879
C0027931
BF8457A8
BF06E32E
3DEAB0C9
3F83897A
3F338013
BF911AFC
BDAB5350
3F911023
BF0FE261
3D013CAC
3F8810B6
3F26A5B5
3F21A6D7
BCC3AA7A
401388B9
BEB8F6AD
BEB8E347
BEFBC925
3F3DBD51
BF60B09F
3EDB419E
3EAA5072
3F033E8A
3F237E4E
BFA580ED
3EFBB6CC
BE09652C
3F08F5A1
BF8C77B4
3F1B0660
3F97393B
BF2905C0
3FC98F7A
BFAA69F0
BE7FB720
BF0D9EA5
3F8668A9
3EE59946
BEC43A64
BF05AB2A
3F58E193
3FAF3227
BEC48F11
C002D417
3EEEABBD
BD7532E8
3EB11EC9
3F8C87FD
3F887FBB
BF05A78F
BF8D2BAA
3EAD0C3D
BE499FA1
3F39D463
3E015E7D
3F4EE8D1
BE00DAE4
BDAC6823
3F541627
BF0A3748
BFE085C2
3DE52C5A
400E3140
3EE33C1D
3E9B2485
3FF2BC17
BEC58F0C
BDB7DAE8
3F267C9E
BE13F0FE
BEBFA440
3DA59AFA
3F796367
3EF05836
3FA946BB
3ECB152F
3F0B531E
BFCB10D4
BF2A3609
3FD7764F
BEC01A15
BF094E90
3F4B31D3
BF236295
3F4CD9B6
BF502470
3EC9259A
BB6F672C
BF845AA3
3F86194C
BFB54856
BF0BB2FF
3F6F5DAB
BF477479
3F4AFC16
3F32E8D1
BFAC58B4
3FAF24A7
BED0F302
3FEE85E4
BB027B70
3F4491E2
BF6B87CF
3F4F6230
3D9DA61E
3F1D2EF9
3BE9AB2A
BF4EEA74
BF66CB64
4019C2FC
BEA15E5B
BF751A54
3E1B280F
BF9C63F1
3F48192A
BEB2C5E3
3F8B4A6F
BF087315
BF9A1038
C01AB878
BF859735
3E1D2C7C
BE1FFC54
3F49BAA1
C029C400
BE1A8EF7
3F331316
BEF240D9
3FBE4B02
BFC747E0
3FAC0C8D
BF6409A2
C00F0585
3D37B6BB
BF146B6A
3FA4E3EF
BF545037
BF366E33
BEC2A1B6
BF0EB5C4
3DDED528
BDE490A3
BEAEE7C5
BEC3CD79
3EDD54DA
BF47E6F7
3FC871DE
BFA11CEB
BEB8CA82
C00F8CB0
3FD82E7F
BFA7BBE8
3F9FA0F1
BE9E2DE8
3EEA1533
BF526DF0
BF8EFD09
3F6F7964
BF201712
400E2270
BF327957
3F1F6AD7
3E756A38
3F2DB8DC
BFA7AD6D
BF12CC1D
BF4BA744
3E22A0A9
BF9B054B
BE7C3DAB
3A8C60CC
BE54CC68
3D9AFC05
BF373DC0
3EFF73C1
3F36833C
BE5C48AE
3F582DBE
3F43481B
3FA66541
3ECAA8A8
BE0D095B
BF9DAC9B
BEEC38D2
BE607E9E
BF19A7D2
BFEAEC18
BF7CBAB6
3EB815C2
3FB672F3
3F8C50AD
BFC5A1BA
BF0A9058
BFB86D05
4019121F
BF81D988
BF8B8601
BF107CD9
BE0FDE72
BDEEDEDB
BFCAAE29
BF035265
3E10029F
3EBFBD06
BF9B8CDA
BDF400B9
3E8AD29A
3F4EC4F8
BFFA2E6F
3D1E774F
BF29C78A
3FE7211D
3DB90D9D
3F1E5AAB
3B488A48
BFB34507
BEF50332
BF9E86AD
3F974C34
BE273648
3F63C2B9
BF87C7B4
3FC7B86F
3DA3CF2D
BF442667
BFAC4E2F
3F28A5BE
3EC24FA9
BEB13986
3EDE3172
BE27DC38
3FAA8FB0
3F82F0F1
BE901648
BEBD84B2
BE8C2E55
3EFD7FD8
40259060
3F9339FC
BE4A975B
3E0EE02A
3F4E7AEA
BF18C3F4
BE427BF6
3E3DD2F2
401A4291
3F5D23E6
BE3E79EE
3F867FF6
3EF9A006
C008E83A
BDAE275B
3CE8FF32
BD21E1D2
3F9D52B9
BFA81798
BED00171
BE0F76E6
3F779F88
BE8575E2
3FA4D1D9
3FEC3C08
BF74E5B4
4004140A
BDBF99C4
3ED134AD
BEDC7C52
BF8AFFC1
4013ED52
BF8B9F5E
3F8046AE
3FA7BF0E
3EDEAC86
BFA55D03
BEC147D0
3F96C519
BF8134CE
BDAE85BA
3F1670C1
3D458DDE
BE449C6F
3DD09B74
3F91F645
C00C2520
3F0D1CB0
BEB9ECF6
3FB23B1D
3F0239A4
BCF9D6F1
BE9AED35
BF3D3932
BF76B29E
3DDF8B9C
3F944902
3E018A01
BEABF78C
BF3731F4
3F942553
3E466ADB
3FF16799
BE7A1BE3
C01AF688
BF3792C0
BDC6BDF5
BFED805E
BFD489A0
C01AEBAB
3F5A2121
BEACA277
3E80A9BD
3F56BBDC
BF543CB0
BEBA9ED4
400E434A
3EF97614
BF68BD55
400DF1B7
3EE06AD3
BF024D90
3F0BF4BA
3F497753
BF54E5A3
BF846BDF
BE0F8F8A
3F9F0271
3F2BDAA5
BF9A358B
BF6B2980
BFA634DB
3ED69058
3FC5020C
BEAEB767
BF5F967D
3F448909
3F10C38F
BF26132B
3F147EAE
3F173605
3F982329
BF846BF0
BF8CEE95
3E7CB89D
BFBD71C1
3F3AFB1A
3FC4773E
3D59F5E0
BEE7789A
3F99DB66
3F5E961C
BEEDFB0D
3F75AE1D
3E0DE508
3F857F06
BE567F4E
BF284B90
BFB4DE1A
BEF87B78
BF59D9C2
C00E882F
3DDBE76D
3FA23947
3F0ED8F5
3E94BEE8
3F88D489
3F203361
BE55A20E
3EBA7A63
3E1DBFCF
BB90470B
BF224D4D
4008BE94
BE9F24D9
BF802B0F
3D8D1527
BD2DA22F
BE6688BE
BE9BF8BA
BEBBCF70
BFCD44B3
3F39057D
3E010FD8
BF1765BA
3F9D3BA7
BE967D13
BF6D4E6E
3DB95D4F
3E974CF5
BFBFADB8
3F34C650
3F888616
BF33634E
BFEBCCA7
BD860781
3F9CA6C2
3FC6E1EF
3DC81BA8
3E870BF2
3F2DADEB
BF458149
BF1E9D41
BEB7264A
BF5FD70A
3F6509D0
BDD53587
3F8C47C3
BEDDCB9B
BFB59781
3F5840C0
BFFB99A2
402AB58D
3F0F778E
3ECFFAC2
BF7CE0B9
3F1821C0
3F170F28
3F090E34
BF4C7C31
BFBB7F6B
3FDBB656
BE31E860
C04C005C
3F574D9C
BFA160E9
3EC96745
3EE9B4DD
3DB4FA48
C0032867
40044092
BF6FE3C1
BFDD7DF2
BF7734A4
BED75C8E
BFE107F2
3F198E97
3FA35504
3E440A6C
3ED45AC4
BFFEDB38
BDC39475
BDBF6FD2
3E9FE176
3F507486
3E923A2A
BC8D0892
3E501084
BF697CC4
BEB7190D
BFED0A9A
BFB9D9CB
3F93949F
BFEBF594
3D78572A
BEA9D4D8
BF41B6E5
3EFEF4BF
3F71EA79
BFC7C8FC
3F8D796C
3F6F927D
BF883D0C
BF66A0A9
BED959A3
BF93F466
3F48E326
3F2D6EAD
BF1F73C1
BEED9F0A
3EAC9F73
BF0D8E11
3EE2ED78
BE8F6C6A
3F46B335
C0019CF1
BF998549
3F9246C7
3EACE209
BFB54ADC
3FA3094A
3F2485F5
3DF1C21A
3EDF8141
BF781062
3E09D55E
BFD49386
3F9765B2
BE5C4977
3EA45868
3F4B7889
BE07E77D
3EE202B8
BF1FF7BE
BFF65469
3F96D5AE
BF8F39B0
3F567254
BC4A4B12
BF87E2CE
3F9B25FF
BF0C57B0
BF9A538F
BFB483A9
4001D9A5
BF882B39
3FC6EAF2
3F23732A
BECF7F8D
3F86F7E4
BE9DF224
3EA4D91F
3F9EF901
3F2D54FC
3F081CA4
3EE6D784
BED698BB
BF5F4F2F
401DBE01
3F1518B1
3DF78466
BEB0F239
BE85D65A
BD877FF1
3F98AD58
BE80FE8B
3F827011
3FA48649
3F611B93
3FD1F466
3FCFE1C1
3EC46B05
BFAB805E
3F63EFE1
3F5B22D1
3F3EC0C6
BF00F55E
BE0D9B1B
BEE97742
3F39119D
BFCECD29
BF09521A
3E8313E0
3E61F3A5
3F53722E
3E2B2B77
3E9EB3FF
BFA4DFB5
BF50FEEF
BF2ADA23
BD20E411
3FC7B3EA
3FFB21C4
3FA0CCAB
3F88E98A
3EED73A8
3FB3D6BF
BF40AFD5
3F065215
3FC53437
BFA536DF
BF7151B5
BF6A0254
3E5548AA
BF017E99
3E8CB513
BE8BEE3D
3F93D934
BEAB64BF
3E18C500
3F124ACF
3F5D4163
BFA64AC7
BF5C7E17
3E3E3D60
3E5B55AC
BF58F862
BE0940FF
3EA71F9B
3F9089FC
3F84FBEC
3EFD9A95
3D9FCEB8
BFC197FF
3E8B78AB
402E4A51
3E2F1066
3BB94531
3FA429C7
3F20B999
3EEF51F0
3FD8CD18
BE2EE957
BF558202
3DC4EA4B
3EDFE2C5
3F837892
3FCA0496
BFB4FBA0
BF232A6B
BEAE5BA7
3FDF8D9B
BEE43FA3
3F96BD3C
BEFADEA9
BF344BA1
BD798202
3EFA7137
3F93B37D
3F076113
3EB66DBD
3F58A372
40040D9D
BF19CDB3
3F84F284
3F50094E
BE3B4AA9
400492C5
3DD12125
3FD17A81
3DC730C6
C005F178
BE9C8F11
BF0FA26A
BF0610CF
BF25A47B
3E827200
3F907A9E
BF83A283
BEAB75C9
BF8773B0
BEA58B61
3EC0507A
BF19FBA4
3E1A60D4
BF2673E7
BE52D278
3FA3459E
3E62B4D9
3F9A9204
3EBC91B0
BF41003F
3AF96E16
3FC49468
BEC2E819
3FA0AB69
3FAACBA7
40293E21
4000D8B6
BE65182B
3F9B5BD5
3F1382C3
3F14F3FE
BEC721B4
3CB95E5B
BF274DBE
3EA843A2
BC828C37
401338A4
BF54C682
BED8CE4F
3E996C1E
3FC438FC
3EF2E59B
BF82FA94
C00217AD
BF5804DA
3FC2F840
3F3C5F8D
BFAA9F62
3F38141F
3F7333B9
BF3EEE52
BF233D8E
3FBAA6A8
BE2200C1
BFA6815E
BF419360
3BA5BD94
BFA5585C
BF73CE31
BEA33E36
3F6F23FF
3F50297C
BEF913C7
BF9C9824
BDF8BBD4
BEC46717
BEBA39E7
BFA0208A
BF42748E
BF1A53EB
BED3C57A
3F13DD87
BF727419
BF1C537E
3ED247AA
3F3283E4
3F668D86
BF4795E6
3F556DC2
3E0F0282
3F8BED9E
BFB5DCF0
BF2AE0E3
BE8D2E0E
3F9C3E96
BF301F32
3EC3599B
BF5BECEE
BF51527E
BF9AF6A5
BF324D6E
3ED58D37
BF7DCFBC
3FC9C51E
3F3EE9BC
3F184D23
BF22EB3E
3F103C29
3F66D97B
3F12A455
3F75D3DD
BF141712
3F788D19
3D6E7D56
3EDCCE5F
BE898ACA
3EC96766
BF08038A
3F8A9D9D
BFEAD752
BFB160F2
3FDF5D92
3EDE4B02
3D972BCB
BEFE3D60
3EFEA5D7
BEE9526E
BED311E8
3DCAF3E4
3F1F3E03
BE8C9A56
BE67A355
BD343958
3F6DD335
3DD8201D
3F9F5400
3F7642E1
3E8BF573
3F188095
C01E503C
3F274BD7
3EE13BE2
BDAA808D
BDF5B35B
BF33BA67
BF14DF9C
BF8126C8
BF1D5F35
BDC81D3B
BF7E7DCC
3F6C192A
3EE16228
3ECE4C0E
BF595886
3F842785
BEACF894
3E21943A
BE7B167F
3E3D783E
BF2D0625
3DD028A2
BEE59B80
3F90E819
BF3943BF
3E941C61
3F4E4B02
3F77CB1D
BF8D8EDA
3EC41850
BEFF2218
3EFC4E51
BF40BC27
3DAB7458
BDD5FAA9
3E05DA6A
BE74A2BA
BF060C39
3F8BDD66
3FA6BEC6
BFAB2EF9
3FA07033
BF37BEDB
BF8418C6
BFCF402D
3DF27675
BF37913F
BFE45E0B
3F19A1A9
3D71337F
3F05E215
3FBA7DC3
3C3252CE
BF92F92B
BD66EA85
BF4A7664
BF0FEB29
BF508377
3E7B6BB1
3D9059EA
3F9FAB4B
3F8362A6
BF87224B
BFCF88F4
3F82B029
BF4609EE
3F79AF08
BFBA112C
3F236220
3EE3FEE3
3ECD93C4
BF4ACC92
3E1D7625
3F1DC305
BFC3C340
3B7EEF5F
3EB66538
3F881BDA
3EAFB203
3E74BC6A
BFE2A609
3F39A565
BF14E6C1
3F7D15BE
3F28A45D
BF455315
3F1343E9
BF0E787D
BF9DEBA7
BC4FA26A
3EF348D4
BF299913
BDF08356
BFD5D76F
BF051698
BF776189
3EF22079
3EAF2453
3DC533B1
3F8465E9
3F949E77
3DE1BB8C
3F2EB1A3
3F84692F
BFF23A21
BFC727BB
3F5B76C5
BDF8D2E5
BFAA58DE
BF87F749
3EF85A4F
BF68A611
BFD9980F
4008B2E6
3F0402B0
3F5189F0
3EBD8CF4
BE162563
BF29F288
BFF3579B
3E1D4995
3F9B16B9
3DEC8FFC
BF56DB51
BF16290F
3E0F6B5D
3F868B22
3DBBFCEB
BB94DD72
BF9224E6
400398F6
BF0C5CDD
BF0F7D41
3F36A3F0
3F8B624A
BEAB66B6
3F13B656
BCBB5BF7
3FAE3569
BF0D883C
BE832208
BDD57FFA
3F3FDFD2
3F9E2BB6
BE5E186A
BE0A77E6
BE429B28
BFCB7AB3
BF7B02E6
BFC8BD88
3FAB5A32
BEEA5BD9
BD28405B
C02F4D0A
3EC0BB6F
BFBBE1A0
3FF382C3
C01F4DDB
3E081FDA
3F8454D6
3EF7A00E
BF3C9C3D
3F7D1F1D
3D82D2FE
BF865836
BD9C126A
3EEC2E34
3F92DF40
3E69C886
3EF669CF
3F9CF6A5
BF615A3A
3F331E5C
BF3BF877
BFB3702E
BDB173FB
BFCF797D
3E027137
BF69EA79
BF70BFD3
3E6A7222
3F04A9EF
BF4FFBDF
BC900E6B
BF33498C
C001E371
BFC3EA3E
BFAD67CB
BED116EC
3EBBAA9B
3F25D302
3EF58EEB
BF8F84EC
3F3BDFF4
BEE09B30
3F58754F
BFF45919
BF04A5DF
3F078088
3E8B4CE4
BE8F8F26
3F807F45
3F9156DA
3CD8127B
C03E83DC
BE959664
BF08A277
3F967619
BFC099D0
BE619D67
3F00154D
3F913D29
3F820126
401F73C1
3EEF0197
3FD23AB8
3F879D1B
4017173C
3F422307
3F0A43CC
40103719
3F365F74
3F189A78
BF82005C
3F8174A3
3FA31D71
4033C925
3EB6EA64
3FCCBCBE
BF8180DC
BE969121
BEB314A9
3FA7125E
BF2AE382
3FA87265
3F3D9620
BF5ECC60
BF8FFACA
3F8B3E57
3F766688
BEB19DED
3D52AD82
BEC42268
BF8DFDB5
BE7BADC1
3DFF6230
3FAD1CB0
40491644
BE390A78
3ECEF47B
3FF28FDA
BF4FCB92
BF9C26D5
BF87AEBC
400E3BA3
3EE06339
BF04B47C
BEE04DBA
BE0AE2DA
BF8FE2C5
3BCBAF96
BF720232
BFD03044
3F928D54
3F3D22EA
3F3571C1
BF852663
3FF4EA29
BE850247
3E4F3626
BF3BDFE3
BF8773B0
3FB14EEC
3EBF498C
3F5694DD
BFF99C63
BF59DD7F
BF83C3CE
3E7EDFE7
BF0122B8
BFD2B84A
BFC6F3CB
BB774470
3ECF223A
BF551ACA
3F375558
BFC82870
3F2757F7
3F12CDF2
3F53211D
3E3640EA
3F60D291
3FD8E643
BF77BCD3
3F766D7A
3EEBE4EF
BF4F2075
3FB789CE
3F5DEFFA
3F09E5E2
BF78DB8C
3E12ACFB
3D7839CE
3E32FF09
3D83968D
3F0C9060
BFDEBEE0
3F938099
3FE34C77
3C03A53C
BF7A44B7
BFF32A5A
401F7C31
3F48ED3E
3F55437C
3BEB3DD1
BFA2ACA8
3D8CC4F0
3EF3608D
BE4FDF7F
BE609678
3EEA99B7
BF4E7989
3FA7987C
3EEBB42D
3E0B99D4
BE8EF545
BF86BC30
3FCBC140
BE770111
BF80914B
BF8E9268
3F52BC30
BDA18EFC
3F7E42F2
BEF17072
BF80F9BA
3D4B1CC9
3F386F8B
3EFB5F81
3E19A416
3E5D5F14
3EF29739
BFFF389B
BF8D2E6A
4022FA5D
BF85C6C9
BF281616
3F3C3FD5
3F5F8C11
BD6A4CA5
3F263151
3E57739F
BF44918E
BF219B2C
BFEF14A1
3F867935
BFD95611
3F86D8F5
BF4595CD
BF914888
BEBB52A8
BF5EA25E
BEA3DD55
3E79702E
3E152114
3ED61F7D
BFDA9692
BEB38F36
3F2D9C28
BEA8E7FF
3F9438C9
BF6AD784
BFE17269
BF18E3AC
3FECE11E
3F8BB552
3F6A1123
3F710082
BF09F213
3FC71194
3B949A56
BF01478D
BF6C5C03
3F04957D
BF62C83F
3F9A1262
BF5D04F7
3F43F184
3ED473EF
BCEF416C
3CEEF805
BFD9F245
3FC9BC23
BE7479D5
401537A4
3E18F68C
BEDF4257
3FFF8CB9
BE9CBE83
3EA72DC3
BFC3B036
3DA8CBD1
BF0379FB
3F8A7086
BF48A149
3F6B3376
3FF56D1A
BF42E8E2
BFAC47E5
BF83EC81
BC0283D3
BF622292
3F19CFBC
3F998C4C
BF1B30F9
3F32E48F
3EFA49C3
3EC8E714
3F32B6F2
BC726289
BDB4CDB8
BD410A57
BFEF5C42
3F485309
3EC1DB66
BECE1B8F
BF7FC771
3FC545BF
BE0B2E5A
BF85360D
3F100FAA
3F3B2629
3ECFF823
BF20CED5
BEABD513
3E3E2AC3
3ECC0464
3F815CB8
3FF7A006
BEE511BE
3F4165C3
BF200E6B
3F22FD54
C01443E9
BE628C37
3D7E1DA8
3F3049BA
3ED9DC2F
BF05C001
3FD4B591
40153312
3F8B930C
BEF4BE62
BF172C62
3EF3C925
BE01ECD5
BF2FFE2A
BF3BBF83
BDE19C9D
400E0EB2
BFB74185
3F4EC99F
3EA113A5
BEEDC769
3AC32A8D
3EEB3B32
BF5E1FD1
3FE3A0F1
BFDBBFD7
3F616228
BECF761D
BEA813A9
BF20B08E
3F2521FF
BF9E96B3
BF2A5892
3FD5DA38
BE3D627C
BE75082D
BE38C261
BDF53B4B
3F13EDC8
3F8BEB4A
BEF30F28
3D91800A
4012AF8E
BF42888B
BFA0AA5C
BF333BEB
3F861C50
BE8BFA2B
BF78D834
3F49346A
BDFD4739
BF42A2E4
3D58127B
BFB765AA
3F64DCCA
3EC911CF
BEE0051D
BF66A24D
BF7E20CD
BF7CA1BE
BFDE3F79
3EFF9011
BCD8DDE8
3E83BB1F
BEFDF1E1
BEBE9C02
BFF3FC33
3F8F1F79
BF16832C
3E32B7FE
3E9BD46B
BED1B21C
3FD28F6D
3FE03B3F
BFEFC433
BEA99C9D
3F8B46ED
3F3F5AEA
3D126C7F
3EE1CEF2
BF004977
BF61DA27
3F247E07
3F87D54E
3F6521DE
BF54FCA4
BE565493
3FCA54EF
3E81AF5C
BE83DB1A
BFD57165
401C5DF6
3FE6B029
BE5616F8
BF94FB55
BD955C53
3F3107A7
3D262ED3
3E09A911
BF1F9CA6
3F92DF6A
BF9D6CCE
BFC84F87
C0250ABF
BF908CEF
BFC41A05
3DCC2D6B
BEB3F2D4
3DB75A75
BF88682B
BF398106
3FC60592
BE8532A5
3E7830A1
BF1B6CDF
BF09BB7B
3DAA771D
3EF8F627
3FDB7C81
3FB58373
3F1A4734
BF13DEB5
BF630D95
BF7A5493
3EE81D5C
3F7ADBE8
3F809E45
BF0FD955
BEADF6DC
BF1162BF
BF0B9E8C
BD4D7CF6
3FA7C18B
40633548
3E084DBA
3EDC8302
BED3C0A0
BEED666B
BDAD3F18
3E07631B
BEE1522A
3EF3B539
3F75BB9D
3F8C857F
3E8DA251
BE93F423
BD5B5C7D
3F395A8E
3EDAC0A5
BF83AA69
BEAE1826
BE8CAA11
3F9D9BA2
BF24F93C
BEA22728
BF42BD3C
BF00F82F
BF03A7A8
3EEF39B0
BE8D104D
3EFB49BF
401AE6D6
3FC978DD
3E2843C4
3F680E49
BFC4410B
BFCE44D8
3FBD377E
3EF8EB46
3EEF1F36
BF88A9E7
3F3C6562
BE42A77A
BF96167B
3FC1D8D8
3F1922FB
BFD52999
BF27D007
BF0C3947
BE8935DB
3F2697C0
3F34B157
3FE2A6B9
BF5DA943
BF90FC7A
3F8AA548
3F430D41
3FB4085B
BF3E4AE0
BF627807
3E2962D0
3F066D6A
BF80706D
BF12E8F3
3F08943E
BFE7FC22
3E27EE4E
3EF49B20
3F9E5815
3E6A7C18
3BF7121B
BDF93EE6
3F2F2FA9
3F982585
BEA78466
BD4C6E6E
3F7B5B60
3F500A28
BF173E25
BE136545
3FA85DB7
3FBB5233
3F102F30
BBAE429E
3FEA5B10
BF9D1AA8
3F7B4F1E
BF21BB38
BEDB24C8
BD8A50D7
BF51DEBE
BEA1320E
3F995A32
BE444913
BFB0D8BA
BF06E7F7
BEDFA7CA
3DA1858C
BF3DB60B
3FCAEDEE
BFDE1883
3FA20232
BF89C50D
3FCB5904
BF51B984
3E747ED0
BE4A6DF0
3EE5870E
BF50EFFE
BED8C2C6
BE1110E4
BE65D13D
3FAE1BA0
3ED00C74
3FF0BE06
BFBF3A15
BE113943
4006BE94
40445D96
BF2D4BF1
BF590C5F
BF00F5B2
3FE7477C
3FBFEA92
BFAA1C04
BF3D7D28
BF35A650
C0083ED9
3F6859C9
3F3BB891
3F295704
BF9BFA09
3E99DF76
BF42B2C0
BF8F3301
BF681E15
BF647E39
BF147C20
3BC918E3
400118DF
3F10BF90
BEBB6417
3FE81217
BF4555E7
3E56099A
3F6C8D4C
BE2AC711
BF78D9F9
3EEB31C2
BF33062D
BDA1D5C3
3E05EBB7
BF61001D
BE993DD9
BF4343D9
3F9B7CE5
BF94EE20
C0097610
3EF929AA
BE648238
3F661D11
BEFFC372
3FC80DD4
3FD56806
3F8957DE
BD0CC144
3E80B8F1
BFDC62B2
BF3F1DB4
BE437436
3F797ABC
BF48AD47
3EA53FC0
BD12BF55
3DBEA811
3F424A7B
3EF6EC5B
3F22D363
3FED81F9
3F872A06
3FB11D93
3F2054DE
3F58997C
3E31CAC1
3D432336
3F0B3F53
3C28A82A
4013255F
3E0E935C
BE20713F
BFC8DCA0
3F6C8041
BF87204B
3EFCA149
BEE8DA3C
3F9009FF
BED9B4FE
3C2250F8
3C727FE5
3F05A815
3EC14C88
BF8B886E
3FA702BC
BF73A872
3F8B45F1
BFEBA0E0
3FA2172B
3FFD0A78
3EAB74DE
3F53328B
3F20B210
3F9278A7
3FAC5F52
BEEB52CA
BF4B1A4C
BEB845DD
3FCA01AC
3E306141
3F6877FF
3FB5F70E
3EAFB331
3EA2E643
3EA65797
3F606812
BFCE826B
3F899E84
BE6F993D
3EF4B210
3EEBAE25
BEB14E5D
3E416DF4
3FF71ACA
C0195ED0
BF5BE910
3E7F21F7
BFA262E5
BF89AF8E
3DAAFC48
3F40A70D
3E671FBC
3FAB7119
3FB95419
BFA4D9D7
BD752EB6
BCBFA094
BEF71BAC
BFC85DD1
3DFF5DFF
3EE2DECA
BFA67DFE
3D1320DA
BFE16189
3FA75A53
BEA03904
3F3C7FAA
C00648B6
BFBACC68
3F7BEDD9
BF55EDF2
C011EE7C
C002905C
3E4AC4F8
3F869308
3DDECD4B
BED69A91
BFC5DA9D
3F1B9097
3D36390D
3F9D7AF6
3E29B457
BF273B75
3F659B80
BE9E20CD
BE9908A2
3F8DA965
BECC690E
BFC4D4CC
BF33F562
3F1FA7B9
C0183494
3EEC27A6
BF3A322B
3F004BB2
3EAD3CFF
3EC856A3
BF3DE55C
