666
000
000
000
000
000
029
000
000
000
000
000
000
000
000
000
000
000
6DA
000
01E
000
000
000
000
000
136
000
000
000
60A
7D4
000
000
000
5DB
059
7DB
014
000
000
000
000
000
000
68F
000
000
000
7F4
000
000
7A0
000
000
000
000
000
7DB
000
039
000
7F8
000
