0000
0000
0000
0000
0000
0000
0000
0536
0000
0000
0000
0007
049F
0000
0000
0000
0000
001D
0000
0000
0000
0000
0000
0000
0000
1AE1
0000
0000
0000
0000
1B62
0000
0000
0000
0000
0000
0000
0000
1FE3
1155
0000
0000
0000
0000
0000
02B0
0000
0000
1708
0000
001A
0000
0000
1DF2
1FF1
0000
1729
1C90
0000
1FB8
0038
0000
0000
1FEF
