000
000
000
000
000
000
284
000
000
000
000
000
000
3CA
000
000
000
000
000
000
000
000
3CC
078
02A
3B3
000
000
000
000
000
000
000
000
000
000
000
000
000
000
000
016
000
000
000
0CB
000
000
000
000
000
0BC
000
000
3C9
000
000
000
000
3E7
3E2
000
000
000
