0000
1FD1
0000
1FE9
0000
0025
1F6F
0000
0000
0000
0000
0000
000C
0000
0000
0000
0073
0000
1FDC
0000
0000
0000
0000
0000
1FFB
0000
1FED
0000
0000
1FDF
0000
0000
0000
1FF1
0000
1FF4
15CF
0000
0000
0000
0000
0000
0000
0000
0008
1FBA
0000
1FF6
0000
0000
0000
0000
0000
1FDD
0000
0000
0000
1FF4
0000
0000
0000
0000
0000
0000
