000
000
000
000
000
000
000
000
FF5
000
000
000
000
000
045
000
AAE
000
000
000
000
FC9
000
000
000
000
000
000
000
000
000
000
000
000
ED4
000
000
000
000
000
000
000
000
000
000
1DD
000
000
000
000
000
000
000
036
000
000
EDE
000
200
000
000
000
000
000
