000
7D8
000
000
000
791
7E9
000
799
000
7F1
000
000
000
000
000
000
000
000
000
000
000
000
000
000
000
000
000
000
000
000
000
54D
000
000
000
000
000
7C1
000
000
000
000
634
7D7
000
000
000
000
7FA
7FE
000
000
796
000
000
000
000
000
000
043
000
000
000
