0000
3FBF
0000
0000
0720
0179
0000
04E9
013D
0000
0000
000C
3270
0000
0000
0000
0000
3FFC
0000
0000
3F94
3E1E
3FF0
0000
3FE2
0000
06AC
3FCA
0000
0000
0000
0000
3C35
0000
0000
0000
0000
0000
0000
0000
0000
0000
0000
0000
0000
0000
0000
001B
3174
0019
0000
0000
006E
02B3
0000
0000
0000
0000
0855
0000
0001
2B3F
0000
0000
