000
000
000
DA0
D4D
000
000
000
000
354
000
026
000
11C
2D3
E55
FEC
00F
000
000
000
000
000
000
000
000
000
015
000
000
000
000
271
114
000
078
000
20C
000
000
000
000
2FD
000
000
F39
000
000
000
000
000
000
000
D3D
000
FCC
000
000
000
000
000
5AC
000
000
