0000
0000
0000
096B
0000
042A
0000
0000
0000
0000
0000
0000
0000
0000
0000
0000
0000
0000
0000
0000
346F
0000
0000
019F
0012
017A
0000
0000
0000
0000
0000
0000
0000
0000
0000
29C6
0000
0000
0000
0000
0000
3CBB
0001
3C60
0000
0000
3DA6
0000
0000
0000
0000
0000
0000
0315
0000
0000
0000
0000
0000
3FED
0000
0000
3FF8
0000
