0000
0000
0000
087B
1DBB
0000
0000
0000
0000
0000
0000
0035
0000
0000
0000
3971
0000
0000
0000
0000
0000
0000
0000
0000
0000
0000
0000
0000
0000
0000
0000
0012
3BE8
3F31
0000
075A
0000
0000
0000
0000
0000
0000
0000
0000
3C4D
0000
0000
0028
0000
0000
0005
3CE9
0000
0000
0000
0000
0000
0000
0000
0000
000B
0000
0000
3F5B
