077
7E2
7C7
01E
003
7D7
016
749
106
7B6
00F
7CB
0AA
6FE
186
03C
79D
00F
0E4
7F0
6B3
132
7C6
009
7F0
7DF
00A
000
7EA
76F
080
7FC
0BA
0CE
0A4
0D2
051
2ED
7DE
056
766
0B5
7F1
713
092
133
169
7F0
00A
7E4
7E1
78C
0B1
059
7F1
7E0
07F
042
0BA
7DA
00F
7FF
7EA
121
