0245
0000
0604
01B7
0000
0000
02D5
1A33
0000
0000
0000
0000
0000
0275
0000
0000
0359
0032
1F1A
0000
01D6
0000
1FF5
0000
0000
0000
1C47
0000
0000
1B40
0000
0000
0363
00FD
0000
0000
0000
1DC3
0000
0000
0000
0000
0000
03A9
1A70
0000
1DB8
0000
0432
0000
1FF3
0000
0040
042F
0000
1FAE
095B
1F90
0014
1FF7
0000
0000
0000
0000
