000
000
003
000
000
000
000
15C
7B0
000
000
000
000
0E7
000
000
000
046
000
034
000
1A6
7EC
000
01C
000
000
000
000
000
138
7CE
000
7BA
000
000
000
000
000
000
7FC
0F0
000
000
000
000
7D0
000
000
000
000
000
000
480
000
000
000
000
5FC
000
000
000
000
000
