000
000
000
07B
000
000
000
17E
000
000
000
000
325
1A2
000
000
10A
000
000
000
1CE
000
000
000
000
3EC
000
3CD
000
000
000
3FA
000
000
317
000
3E3
000
000
000
136
000
000
000
381
000
38D
000
000
000
000
000
000
000
3CF
000
000
000
000
000
000
000
3BD
000
