0000
3FD0
0463
0000
3A21
0000
0000
3F2D
2B41
0000
0000
000B
07E3
0000
0000
0000
0000
0000
06AC
3FF5
0000
027F
3F99
0000
0000
0000
0000
3FF5
0000
0000
0000
3FF7
0000
0000
0000
02AB
0557
01F9
3FE0
0000
0000
072C
05D7
0000
0000
0000
0000
0000
0000
3FDD
0000
0000
01B9
0000
0000
0015
0000
0000
03C8
0004
0039
0000
0000
0000
