0000
0000
01D6
1B0E
1D2F
1EE6
18DB
199A
1DB5
0000
0037
1FF7
0000
1AFF
0000
0000
0000
0000
082E
0000
0000
0000
0000
0000
0000
0000
0000
0000
0008
1E4D
0000
0000
0000
0000
0000
0000
0000
0000
0000
0000
03E9
0000
0000
0000
0000
0000
05BD
1FBA
0000
1FC2
0000
0000
039A
0000
0000
0000
0276
1EA5
0000
1FFC
0000
0000
0000
0000
