00E3
0001
0016
1FF0
0000
01CC
0C18
0000
0000
0000
0000
0000
0000
0000
0000
1FA7
0000
1FD2
0000
0000
0000
0000
1FB1
0000
0000
0000
0000
0000
0000
0000
0000
1FF6
0000
0000
0000
1FAE
0000
0000
000D
0000
03E8
0000
0000
0000
0000
0496
0000
0000
0000
000C
0000
0000
0000
0000
0000
0000
0000
0000
0000
1FAD
1FF3
1FF7
0000
0000
