000
FC1
000
000
000
000
000
120
000
000
000
013
000
000
000
000
000
02A
000
000
000
0BD
000
000
000
FE1
000
000
000
000
000
FDA
000
000
1D4
000
033
000
000
000
000
32B
000
330
000
01B
BBC
000
000
000
000
000
000
000
000
FFF
000
000
000
FE7
000
000
FF1
000
