000
010
000
770
0C4
02C
6BC
000
000
000
000
000
000
000
000
000
000
000
000
000
000
000
000
000
000
000
000
000
000
000
7E4
000
7C6
000
5BC
000
000
000
000
000
000
000
000
000
000
59D
000
000
7E5
000
000
10C
000
000
018
000
60A
000
7D6
7F7
000
71D
000
000
