000
3DE
000
000
000
3F8
000
000
000
000
000
3E6
000
3F4
000
000
16B
000
000
000
000
000
000
000
000
000
000
000
000
01B
004
000
000
000
000
000
000
000
000
000
3FF
000
005
000
000
000
000
000
000
3C6
000
000
000
000
3FD
3D1
000
000
000
000
000
000
020
000
