121D
1FD3
0369
0000
0000
0000
0000
0000
1523
0000
0000
1FC0
0000
00D8
19EC
0000
18F1
0000
0000
0000
0000
0000
0000
1D19
0000
0000
0000
0000
001D
0000
1B02
0000
0000
0000
0000
0000
0000
011F
0000
00B7
0000
0000
0000
1DD8
0000
0000
0000
0000
0000
0000
1FB2
0000
0000
0000
0000
0000
0000
1321
0000
0000
1FEC
0000
0004
0000
