000
7C8
000
000
06A
006
7D3
000
0C6
000
000
000
000
6BA
7CD
000
59D
000
000
000
000
65A
000
000
000
000
000
008
000
0B6
000
000
000
000
000
000
000
019
000
000
000
64A
000
12D
000
000
000
000
000
000
000
000
000
296
000
000
000
000
000
000
000
000
7E3
000
