000
000
000
000
000
000
000
000
000
000
000
7DF
000
000
000
000
000
031
000
000
039
5F9
01C
000
000
000
000
7F0
000
000
000
000
000
0C8
000
000
7E4
000
000
000
000
000
000
127
000
000
000
000
000
000
000
000
000
000
7C2
000
000
000
7B9
000
000
000
000
000
