000
FED
000
DFD
000
000
000
000
000
000
027
000
000
000
93B
000
000
000
000
000
000
000
000
000
000
000
000
000
FD7
3E2
000
01F
000
000
000
000
000
000
000
000
000
FAE
000
000
799
000
000
000
000
FB1
000
000
000
000
000
000
000
000
000
000
000
000
000
000
