0000
0029
0000
0000
0000
0000
0000
0000
3EB4
0000
0000
0000
0000
0086
0000
3102
0000
0017
0000
0000
0000
0000
0037
0000
0000
0000
0000
3FF3
0000
09AB
3BAB
0016
0000
0000
0000
0000
0000
3FE1
0000
2D3A
0000
3FE7
0000
0F85
0000
0000
0000
0000
0000
0000
0000
0000
0000
0000
0000
0000
3630
3E06
0000
0000
0000
0000
0023
0000
