0000
0015
0000
0000
0000
0000
0000
3F72
0000
0000
0000
0000
0000
0000
0000
0000
0000
0000
3F8E
0000
0000
0000
0001
0000
0000
0000
3C9F
0000
0000
0000
0395
0035
0000
3CEA
0000
0000
0000
0000
0000
001B
0B6E
0000
0000
1BE2
0000
0000
0000
0000
0000
0000
0000
0000
0000
0000
0000
3FED
0000
00F1
0099
0000
003D
0000
0000
003C
