0000
1FFF
0000
0000
0000
0000
0000
0000
0000
0000
1FE5
0000
0A82
0000
0000
0000
0000
0000
0000
0000
0000
0000
0000
0000
1FB5
0000
0000
0000
0000
0000
0000
0000
0000
0958
1D6E
0000
0000
0000
0000
0000
07AF
0000
0934
0000
0000
0000
1D96
0000
0000
0000
0000
0000
0000
0000
0000
0000
0452
0000
0000
0000
0000
0000
0000
0000
