000
015
000
000
000
000
0FC
000
375
09C
011
015
003
000
000
000
000
000
000
000
00D
000
000
000
000
3F0
000
000
000
000
000
000
000
000
000
0D9
000
3D8
000
000
019
000
000
000
075
000
000
000
000
3FF
3F3
000
000
000
3FE
000
016
000
000
00A
000
000
000
288
