0000
0000
0857
096C
05A2
0000
0000
1F98
0000
0000
0000
0000
0000
1E84
0000
0000
0000
0000
0000
0000
0000
0000
1FE1
0000
0000
0633
0000
0000
0000
0000
0000
0004
0000
0000
1F99
1A7E
004C
0000
0000
000A
0000
0000
0000
0000
00CC
0000
0000
0000
01AF
0000
0000
0000
0000
0000
0000
0006
0721
0000
0000
0000
0000
0000
0000
0000
