0000
0000
1FF3
1B30
0000
0000
030B
0000
0000
0000
0000
0000
0000
0000
0000
0000
0000
0000
1F9C
0006
0000
0000
0000
0000
0000
0000
0000
0000
0000
0594
0509
0000
0000
1726
0000
0000
0000
1FDB
0000
0000
0000
0000
0000
0000
0000
0000
0000
1FD3
0000
0000
1FB3
0000
0000
0000
0000
0000
0000
05AB
0000
0000
0000
0000
0000
0000
