000
000
003
000
000
7B0
000
000
000
000
019
000
000
001
000
000
000
000
000
000
000
6DD
000
000
000
000
23D
000
7E5
000
019
000
76C
000
000
000
000
409
000
000
000
000
000
7EE
00D
000
7FF
000
000
7EC
000
060
4EE
000
000
000
033
000
000
000
022
000
000
000
