1FB8
0000
0000
1FD7
0000
0000
0000
0000
0000
0842
0000
0000
0000
0000
0000
0000
0000
0000
0000
1FFC
0000
1FCF
0000
002D
1FBE
0000
0000
0000
0000
0000
0000
1FFB
0000
0000
1FF3
1EA6
0000
0000
0000
1E9C
00AD
0000
0000
0000
0000
0000
1637
1FD6
0000
0000
0004
1D1F
0000
0000
0000
0000
0000
0000
0000
0000
0000
1F06
0000
0000
