000
000
000
000
000
000
EAB
000
000
000
01D
000
000
000
2D7
000
077
000
BDA
000
D2F
000
000
756
021
000
243
000
000
000
000
000
121
000
F98
000
000
000
000
000
212
000
000
000
000
000
000
FBA
000
000
000
000
000
000
007
000
000
1F0
000
000
000
000
000
000
