0000
000B
0000
1CDF
31FC
04A7
0CFA
0000
0000
0000
0027
0002
080C
0000
0000
0000
0000
0000
0000
0000
0000
0000
0000
0000
0000
0000
04F1
0000
0000
0000
0000
0000
0000
0000
0000
0000
76CB
7E28
0000
0000
7EBC
0000
04FD
0000
2EB8
0000
0745
0000
0000
0000
0000
0000
0000
02DA
0000
0000
0000
0000
0000
0000
0000
0000
0000
0000
