0000
0000
0000
0000
0000
0000
0000
0000
0000
0000
0000
0000
0000
0000
0000
0000
0000
0000
0000
0000
0000
00BB
0000
0000
0000
0000
0000
0000
0000
3F8B
0000
0000
3E42
0000
3FF4
3AF0
0033
0007
0000
0000
2C9E
0000
0000
3F52
0000
0000
0000
0000
0000
3FC8
0000
0000
0000
0000
0000
0000
0000
3F3A
0000
0000
0000
0000
0000
0000
