000
018
000
000
000
782
000
000
000
000
000
000
000
000
000
111
7E8
000
000
000
000
000
7B1
000
017
7EB
000
000
000
000
000
000
027
000
000
000
000
000
000
000
000
000
000
000
000
000
000
000
000
7EA
000
000
0E7
74F
000
000
000
67E
216
012
7D8
000
01A
6AA
