0A3
05D
FAB
FEF
116
074
FAE
013
09F
03A
1C6
099
FD6
0F5
ED8
F72
EFC
098
FC2
FA4
054
FB5
019
014
0A7
EBA
E9A
0A1
159
F6B
20A
293
04A
FD0
FA7
0A0
FC5
0F4
000
FBA
094
095
008
113
F3A
02C
121
E9F
09D
F25
F8D
FAD
02D
F38
F3C
FB3
0C6
FDB
FEA
019
F26
028
0F7
FA8
FCE
FE3
2F0
F7E
139
F16
FFD
07C
F48
06B
032
F73
F2D
FF2
086
FA4
EC2
F5E
0BD
E7F
F8A
068
F4F
1E4
FD4
FCE
068
F77
FFF
096
049
FFB
F4E
0D4
010
FDE
0B8
EFC
24F
F00
F44
FF0
F1E
FAB
F60
F6A
128
052
014
03F
03C
FB4
03F
FA4
FE8
067
F92
2E4
134
0A3
EF4
081
007
045
F7E
FD6
00B
02A
087
04E
142
0C3
F5C
0B6
0A9
E9D
FFC
F49
F73
0CA
F4D
F96
050
044
009
01C
F39
FF5
0C3
020
034
016
F41
FBD
E1F
F9E
FAF
FE6
141
FC2
E63
071
045
FC1
067
F35
F01
FAB
F78
0EC
F6F
09A
FC1
1D5
EC5
065
F46
05B
FBE
F10
FC2
02D
FA4
FAE
152
FC9
F1F
F60
EB9
0AC
18D
E34
039
013
12C
F18
00E
053
07A
FBA
0EA
0A8
E78
FF4
FB1
108
12F
176
102
0EC
F67
093
FBE
061
00B
FF4
019
FE4
FD9
06E
02D
03D
F62
051
F6D
51D
118
F7C
F63
FD9
FDA
FED
01F
FF2
04A
075
032
062
FF9
044
F32
FB2
F77
E58
207
013
077
FC0
FF7
FF9
FE1
F83
FB9
077
0D7
D08
042
09C
F5C
FE1
FFF
06B
FAB
FDA
059
01F
10B
FCF
EF6
026
075
FF8
02A
0BF
FDA
FB0
F1D
06B
F16
0A5
F4D
F3A
F00
068
F92
03D
F91
067
083
0B4
07C
029
0A8
FA9
039
F57
F86
299
E07
F3D
03C
001
EF7
08C
FCE
F52
FDA
00D
FF9
F51
FA8
011
D55
211
028
0DA
037
EF7
FDC
043
016
FD7
F70
04A
009
033
FD0
FB4
EF7
FC0
05A
F8B
F0F
166
ED6
033
039
09A
031
F9E
0A4
FFE
FF0
F99
18E
107
F2D
F7B
EFF
21A
FA2
053
FFC
04A
F07
114
