085
C9B
D19
026
FA2
112
061
FE3
108
FEB
FC7
FC6
E1D
F1D
159
E46
165
0CB
DED
141
EEA
01B
012
D1F
F9F
F75
151
0C0
D6C
033
DAB
E9B
F89
192
EEF
0C2
FE3
1F4
0EC
FE5
005
176
057
D83
099
EA4
10F
18B
FBB
EDC
162
193
AE9
D99
CAE
0A6
0E7
CB8
ED9
D62
DFD
F7B
0A2
09E
E67
F2E
F43
FAF
0BA
0E5
09A
030
003
F52
F9E
06E
C1F
0BF
004
03B
177
F5A
05E
05F
16A
17E
E8A
E42
F6F
DE1
F0F
EF2
3AB
0C4
15C
EAA
148
E2F
100
101
