0000
0000
0000
0000
0000
0000
1582
0000
0292
165B
0000
0000
0000
0000
0000
0000
0000
0000
0066
0000
0000
0000
003F
0000
0000
0000
3FD9
0000
0000
0000
0000
0000
0000
0000
3FC3
2CA9
390D
0000
0000
0000
0000
0000
0000
0000
0921
0000
0000
3FDB
0000
0000
3FEF
0000
3B62
0000
0000
0000
0000
0000
0208
0000
0000
0000
3FD5
0000
