0000
0000
0000
0000
0000
0000
23E6
0000
0000
0000
000B
0000
0000
00CE
0000
0000
0000
0000
0000
0000
0000
02E8
7FC6
0000
0000
0000
0000
0000
0002
2DC6
0000
0000
0000
0000
0000
0000
0000
0000
0000
0000
0000
0000
0207
0000
0000
0000
0000
0000
6DF5
0000
0000
0000
0000
7EFF
0000
0000
7828
0537
0000
7FA1
0000
0000
0000
0000
