889
000
000
000
000
000
000
05F
000
000
000
000
000
000
000
F1C
000
01A
000
000
30C
000
000
000
000
000
000
000
000
5E8
000
000
1A5
000
47F
000
000
000
FBC
000
000
2E1
000
000
000
000
000
000
000
034
000
000
000
000
000
000
000
745
348
000
000
000
000
BE6
