0000
0000
0000
0000
3EDD
3F92
0000
3D4A
0000
0000
3FE5
0000
0000
0000
0100
0003
0000
0000
0000
0000
0000
0000
3FE5
0000
0000
0000
0000
0000
0000
0000
0000
0000
0000
3EF6
0000
3FE2
2ABE
0000
0000
03B5
0000
0000
0103
0000
0000
3E51
3F9E
000B
0000
0018
3FF5
0000
0148
0000
0000
0000
3E5C
0000
3E59
3FB8
0000
0285
000A
0000
