0000
0000
0000
0000
0000
0000
0000
0000
0000
39AC
3FD0
0000
362E
3F67
0000
039B
0000
3FDE
0000
0000
3EB7
0000
0061
3195
0000
0000
0000
0000
0000
2E24
0000
0000
0000
06C9
0000
04A5
0000
0000
0000
3663
0000
0000
0000
0000
0000
0000
051A
0000
0000
0000
0000
0000
0000
0000
003A
0000
0000
0000
0000
0000
0000
0000
0000
0000
